{
  "version": "1.0",
  "truncation": null,
  "padding": {
    "strategy": "BatchLongest",
    "direction": "Right",
    "pad_to_multiple_of": null,
    "pad_id": 0,
    "pad_type_id": 0,
    "pad_token": "<pad>"
  },
  "added_tokens": [
    {
      "id": 0,
      "content": "<pad>",
      "single_word": false,
      "lstrip": false,
      "rstrip": false,
      "normalized": false,
      "special": true
    },
    {
      "id": 1,
      "content": "<bos>",
      "single_word": false,
      "lstrip": false,
      "rstrip": false,
      "normalized": false,
      "special": true
    },
    {
      "id": 2,
      "content": "<eos>",
      "single_word": false,
      "lstrip": false,
      "rstrip": false,
      "normalized": false,
      "special": true
    },
    {
      "id": 3,
      "content": "<mask>",
      "single_word": false,
      "lstrip": false,
      "rstrip": false,
      "normalized": false,
      "special": true
    },
    {
      "id": 4,
      "content": "<sep>",
      "single_word": false,
      "lstrip": false,
      "rstrip": false,
      "normalized": false,
      "special": true
    },
    {
      "id": 5,
      "content": "<corrupt>",
      "single_word": false,
      "lstrip": false,
      "rstrip": false,
      "normalized": false,
      "special": true
    },
    {
      "id": 6,
      "content": "<unk>",
      "single_word": false,
      "lstrip": false,
      "rstrip": false,
      "normalized": false,
      "special": true
    }
  ],
  "normalizer": null,
  "pre_tokenizer": {
    "type": "Sequence",
    "pretokenizers": [
      {
        "type": "WhitespaceSplit"
      },
      {
        "type": "Punctuation",
        "behavior": "Isolated"
      }
    ]
  },
  "post_processor": {
    "type": "TemplateProcessing",
    "single": [
      {
        "SpecialToken": {
          "id": "<bos>",
          "type_id": 0
        }
      },
      {
        "Sequence": {
          "id": "A",
          "type_id": 0
        }
      },
      {
        "SpecialToken": {
          "id": "<eos>",
          "type_id": 0
        }
      }
    ],
    "pair": [
      {
        "SpecialToken": {
          "id": "<bos>",
          "type_id": 0
        }
      },
      {
        "Sequence": {
          "id": "A",
          "type_id": 0
        }
      },
      {
        "SpecialToken": {
          "id": "<sep>",
          "type_id": 0
        }
      },
      {
        "Sequence": {
          "id": "B",
          "type_id": 0
        }
      },
      {
        "SpecialToken": {
          "id": "<eos>",
          "type_id": 0
        }
      }
    ],
    "special_tokens": {
      "<bos>": {
        "id": "<bos>",
        "ids": [
          1
        ],
        "tokens": [
          "<bos>"
        ]
      },
      "<eos>": {
        "id": "<eos>",
        "ids": [
          2
        ],
        "tokens": [
          "<eos>"
        ]
      },
      "<sep>": {
        "id": "<sep>",
        "ids": [
          4
        ],
        "tokens": [
          "<sep>"
        ]
      }
    }
  },
  "decoder": {
    "type": "BPEDecoder",
    "suffix": "</w>"
  },
  "model": {
    "type": "BPE",
    "dropout": null,
    "unk_token": "<unk>",
    "continuing_subword_prefix": null,
    "end_of_word_suffix": null,
    "fuse_unk": false,
    "byte_fallback": false,
    "ignore_merges": false,
    "vocab": {
      "<pad>": 0,
      "<bos>": 1,
      "<eos>": 2,
      "<mask>": 3,
      "<sep>": 4,
      "<corrupt>": 5,
      "<unk>": 6,
      "!": 7,
      "\"": 8,
      "#": 9,
      "$": 10,
      "%": 11,
      "&": 12,
      "'": 13,
      "(": 14,
      ")": 15,
      "*": 16,
      "+": 17,
      ",": 18,
      "-": 19,
      ".": 20,
      "/": 21,
      "0": 22,
      "1": 23,
      "2": 24,
      "3": 25,
      "4": 26,
      "5": 27,
      "6": 28,
      "7": 29,
      "8": 30,
      "9": 31,
      ":": 32,
      ";": 33,
      "<": 34,
      "=": 35,
      ">": 36,
      "?": 37,
      "@": 38,
      "A": 39,
      "B": 40,
      "C": 41,
      "D": 42,
      "E": 43,
      "F": 44,
      "G": 45,
      "H": 46,
      "I": 47,
      "J": 48,
      "K": 49,
      "L": 50,
      "M": 51,
      "N": 52,
      "O": 53,
      "P": 54,
      "Q": 55,
      "R": 56,
      "S": 57,
      "T": 58,
      "U": 59,
      "V": 60,
      "W": 61,
      "X": 62,
      "Y": 63,
      "Z": 64,
      "[": 65,
      "\\": 66,
      "]": 67,
      "^": 68,
      "_": 69,
      "`": 70,
      "a": 71,
      "b": 72,
      "c": 73,
      "d": 74,
      "e": 75,
      "f": 76,
      "g": 77,
      "h": 78,
      "i": 79,
      "j": 80,
      "k": 81,
      "l": 82,
      "m": 83,
      "n": 84,
      "o": 85,
      "p": 86,
      "q": 87,
      "r": 88,
      "s": 89,
      "t": 90,
      "u": 91,
      "v": 92,
      "w": 93,
      "x": 94,
      "y": 95,
      "z": 96,
      "{": 97,
      "|": 98,
      "}": 99,
      "~": 100,
      "": 101,
      "¡": 102,
      "¢": 103,
      "£": 104,
      "¤": 105,
      "¥": 106,
      "¦": 107,
      "§": 108,
      "¨": 109,
      "©": 110,
      "ª": 111,
      "«": 112,
      "¬": 113,
      "®": 114,
      "¯": 115,
      "°": 116,
      "±": 117,
      "²": 118,
      "³": 119,
      "´": 120,
      "µ": 121,
      "¶": 122,
      "·": 123,
      "¸": 124,
      "¹": 125,
      "º": 126,
      "»": 127,
      "¼": 128,
      "½": 129,
      "¾": 130,
      "¿": 131,
      "À": 132,
      "Á": 133,
      "Â": 134,
      "Ã": 135,
      "Ä": 136,
      "Å": 137,
      "Æ": 138,
      "Ç": 139,
      "È": 140,
      "É": 141,
      "Ê": 142,
      "Ë": 143,
      "Ì": 144,
      "Í": 145,
      "Î": 146,
      "Ï": 147,
      "Ð": 148,
      "Ñ": 149,
      "Ò": 150,
      "Ó": 151,
      "Ô": 152,
      "Õ": 153,
      "Ö": 154,
      "×": 155,
      "Ø": 156,
      "Ù": 157,
      "Ú": 158,
      "Û": 159,
      "Ü": 160,
      "Ý": 161,
      "Þ": 162,
      "ß": 163,
      "à": 164,
      "á": 165,
      "â": 166,
      "ã": 167,
      "ä": 168,
      "å": 169,
      "æ": 170,
      "ç": 171,
      "è": 172,
      "é": 173,
      "ê": 174,
      "ë": 175,
      "ì": 176,
      "í": 177,
      "î": 178,
      "ï": 179,
      "ð": 180,
      "ñ": 181,
      "ò": 182,
      "ó": 183,
      "ô": 184,
      "õ": 185,
      "ö": 186,
      "÷": 187,
      "ø": 188,
      "ù": 189,
      "ú": 190,
      "û": 191,
      "ü": 192,
      "ý": 193,
      "þ": 194,
      "ÿ": 195,
      "Ā": 196,
      "ā": 197,
      "Ă": 198,
      "ă": 199,
      "Ą": 200,
      "ą": 201,
      "Ć": 202,
      "ć": 203,
      "Ĉ": 204,
      "ĉ": 205,
      "Ċ": 206,
      "ċ": 207,
      "Č": 208,
      "č": 209,
      "Ď": 210,
      "ď": 211,
      "Đ": 212,
      "đ": 213,
      "Ē": 214,
      "ē": 215,
      "Ĕ": 216,
      "ĕ": 217,
      "Ė": 218,
      "ė": 219,
      "Ę": 220,
      "ę": 221,
      "Ě": 222,
      "ě": 223,
      "Ĝ": 224,
      "ĝ": 225,
      "Ğ": 226,
      "ğ": 227,
      "Ġ": 228,
      "ġ": 229,
      "Ģ": 230,
      "ģ": 231,
      "Ĥ": 232,
      "ĥ": 233,
      "Ħ": 234,
      "ħ": 235,
      "Ĩ": 236,
      "ĩ": 237,
      "Ī": 238,
      "ī": 239,
      "Ĭ": 240,
      "ĭ": 241,
      "Į": 242,
      "į": 243,
      "İ": 244,
      "ı": 245,
      "Ĳ": 246,
      "ĳ": 247,
      "Ĵ": 248,
      "ĵ": 249,
      "Ķ": 250,
      "ķ": 251,
      "ĸ": 252,
      "Ĺ": 253,
      "ĺ": 254,
      "Ļ": 255,
      "ļ": 256,
      "Ľ": 257,
      "ľ": 258,
      "Ŀ": 259,
      "ŀ": 260,
      "Ł": 261,
      "ł": 262,
      "Ń": 263,
      "Ō": 264,
      "ō": 265,
      "Œ": 266,
      "œ": 267,
      "Ś": 268,
      "ś": 269,
      "Ū": 270,
      "ū": 271,
      "Ŭ": 272,
      "ŭ": 273,
      "ž": 274,
      "ɑ": 275,
      "ɣ": 276,
      "ʰ": 277,
      "ʹ": 278,
      "ʺ": 279,
      "ʻ": 280,
      "ˢ": 281,
      "̑": 282,
      "ΐ": 283,
      "Α": 284,
      "Β": 285,
      "Γ": 286,
      "Δ": 287,
      "Ε": 288,
      "Ζ": 289,
      "Η": 290,
      "Θ": 291,
      "Ι": 292,
      "Κ": 293,
      "Λ": 294,
      "Μ": 295,
      "Ν": 296,
      "Ξ": 297,
      "Ο": 298,
      "Π": 299,
      "Ρ": 300,
      "Σ": 301,
      "Τ": 302,
      "Υ": 303,
      "Φ": 304,
      "Χ": 305,
      "Ψ": 306,
      "Ω": 307,
      "ά": 308,
      "έ": 309,
      "ή": 310,
      "ί": 311,
      "α": 312,
      "β": 313,
      "γ": 314,
      "δ": 315,
      "ε": 316,
      "ζ": 317,
      "η": 318,
      "θ": 319,
      "ι": 320,
      "κ": 321,
      "λ": 322,
      "μ": 323,
      "ν": 324,
      "ξ": 325,
      "ο": 326,
      "π": 327,
      "ρ": 328,
      "ς": 329,
      "σ": 330,
      "τ": 331,
      "υ": 332,
      "φ": 333,
      "χ": 334,
      "ψ": 335,
      "ω": 336,
      "ϊ": 337,
      "ϋ": 338,
      "ό": 339,
      "ύ": 340,
      "ώ": 341,
      "ϕ": 342,
      "ϰ": 343,
      "א": 344,
      "ד": 345,
      "ו": 346,
      "ח": 347,
      "ם": 348,
      "מ": 349,
      "ע": 350,
      "ש": 351,
      "ת": 352,
      "ا": 353,
      "ر": 354,
      "ق": 355,
      "م": 356,
      "ᵈ": 357,
      "ᵐ": 358,
      "Ḍ": 359,
      "ḍ": 360,
      "Ḥ": 361,
      "ḥ": 362,
      "Ḳ": 363,
      "ḳ": 364,
      "Ṣ": 365,
      "ṣ": 366,
      "Ṭ": 367,
      "ṭ": 368,
      "Ẓ": 369,
      "ẓ": 370,
      "ạ": 371,
      "ἀ": 372,
      "ἁ": 373,
      "ἂ": 374,
      "ἄ": 375,
      "ἅ": 376,
      "ἆ": 377,
      "Ἀ": 378,
      "Ἁ": 379,
      "Ἄ": 380,
      "Ἅ": 381,
      "ἐ": 382,
      "ἑ": 383,
      "ἔ": 384,
      "ἕ": 385,
      "Ἐ": 386,
      "Ἑ": 387,
      "Ἔ": 388,
      "Ἕ": 389,
      "ἠ": 390,
      "ἡ": 391,
      "ἢ": 392,
      "ἣ": 393,
      "ἤ": 394,
      "ἥ": 395,
      "ἦ": 396,
      "Ἠ": 397,
      "Ἡ": 398,
      "Ἥ": 399,
      "ἰ": 400,
      "ἱ": 401,
      "ἲ": 402,
      "ἳ": 403,
      "ἴ": 404,
      "ἵ": 405,
      "ἶ": 406,
      "ἷ": 407,
      "Ἰ": 408,
      "Ἱ": 409,
      "Ἴ": 410,
      "Ἵ": 411,
      "Ἶ": 412,
      "ὀ": 413,
      "ὁ": 414,
      "ὂ": 415,
      "ὃ": 416,
      "ὄ": 417,
      "ὅ": 418,
      "Ὀ": 419,
      "Ὁ": 420,
      "Ὄ": 421,
      "ὐ": 422,
      "ὑ": 423,
      "ὒ": 424,
      "ὔ": 425,
      "ὕ": 426,
      "ὖ": 427,
      "ὗ": 428,
      "Ὑ": 429,
      "Ὓ": 430,
      "Ὕ": 431,
      "ὠ": 432,
      "ὡ": 433,
      "ὤ": 434,
      "ὥ": 435,
      "ὦ": 436,
      "Ὠ": 437,
      "Ὦ": 438,
      "ὰ": 439,
      "ὲ": 440,
      "ὴ": 441,
      "ὶ": 442,
      "ὸ": 443,
      "ὺ": 444,
      "ὼ": 445,
      "ᾗ": 446,
      "ᾳ": 447,
      "ᾶ": 448,
      "ᾷ": 449,
      "᾽": 450,
      "ῃ": 451,
      "ῆ": 452,
      "ῇ": 453,
      "ῑ": 454,
      "ῖ": 455,
      "ῤ": 456,
      "ῥ": 457,
      "ῦ": 458,
      "Ῥ": 459,
      "ῳ": 460,
      "ῶ": 461,
      "ῷ": 462,
      "‎": 463,
      "‏": 464,
      "‐": 465,
      "–": 466,
      "—": 467,
      "―": 468,
      "„": 469,
      "†": 470,
      "‡": 471,
      "•": 472,
      "′": 473,
      "″": 474,
      "‴": 475,
      "⁄": 476,
      "⁰": 477,
      "⁴": 478,
      "⁵": 479,
      "⁶": 480,
      "⁷": 481,
      "⁸": 482,
      "⁹": 483,
      "₀": 484,
      "₁": 485,
      "₂": 486,
      "₃": 487,
      "₄": 488,
      "₅": 489,
      "₆": 490,
      "₇": 491,
      "₈": 492,
      "₉": 493,
      "™": 494,
      "⅐": 495,
      "⅑": 496,
      "⅒": 497,
      "⅓": 498,
      "⅔": 499,
      "⅕": 500,
      "⅖": 501,
      "⅗": 502,
      "⅘": 503,
      "⅙": 504,
      "⅚": 505,
      "⅛": 506,
      "⅜": 507,
      "⅝": 508,
      "⅞": 509,
      "→": 510,
      "−": 511,
      "√": 512,
      "∛": 513,
      "∝": 514,
      "∞": 515,
      "∫": 516,
      "∬": 517,
      "⋅": 518,
      "⌶": 519,
      "─": 520,
      "│": 521,
      "┌": 522,
      "┐": 523,
      "└": 524,
      "┘": 525,
      "├": 526,
      "┤": 527,
      "┬": 528,
      "┴": 529,
      "┼": 530,
      "═": 531,
      "╪": 532,
      "☿": 533,
      "♂": 534,
      "♈": 535,
      "♎": 536,
      "⪌": 537,
      "、": 538,
      "。": 539,
      "〈": 540,
      "〉": 541,
      "「": 542,
      "」": 543,
      "【": 544,
      "】": 545,
      "一": 546,
      "七": 547,
      "丈": 548,
      "三": 549,
      "上": 550,
      "下": 551,
      "不": 552,
      "且": 553,
      "世": 554,
      "丘": 555,
      "並": 556,
      "中": 557,
      "主": 558,
      "乃": 559,
      "久": 560,
      "之": 561,
      "乎": 562,
      "乘": 563,
      "九": 564,
      "乞": 565,
      "也": 566,
      "亂": 567,
      "予": 568,
      "事": 569,
      "二": 570,
      "于": 571,
      "云": 572,
      "互": 573,
      "五": 574,
      "井": 575,
      "亞": 576,
      "亟": 577,
      "亡": 578,
      "亢": 579,
      "交": 580,
      "亦": 581,
      "享": 582,
      "人": 583,
      "仁": 584,
      "今": 585,
      "仍": 586,
      "仕": 587,
      "他": 588,
      "仞": 589,
      "代": 590,
      "令": 591,
      "以": 592,
      "仰": 593,
      "仲": 594,
      "任": 595,
      "伊": 596,
      "伐": 597,
      "伯": 598,
      "似": 599,
      "位": 600,
      "何": 601,
      "佚": 602,
      "佛": 603,
      "作": 604,
      "佞": 605,
      "佩": 606,
      "佾": 607,
      "使": 608,
      "侃": 609,
      "來": 610,
      "侍": 611,
      "侗": 612,
      "依": 613,
      "侮": 614,
      "侯": 615,
      "便": 616,
      "俎": 617,
      "保": 618,
      "俟": 619,
      "信": 620,
      "修": 621,
      "俱": 622,
      "倍": 623,
      "倚": 624,
      "借": 625,
      "倦": 626,
      "倩": 627,
      "倫": 628,
      "偃": 629,
      "偏": 630,
      "偲": 631,
      "側": 632,
      "偷": 633,
      "備": 634,
      "傳": 635,
      "傷": 636,
      "傾": 637,
      "僎": 638,
      "僕": 639,
      "儀": 640,
      "億": 641,
      "儉": 642,
      "儒": 643,
      "優": 644,
      "儺": 645,
      "儼": 646,
      "允": 647,
      "兄": 648,
      "兆": 649,
      "先": 650,
      "克": 651,
      "免": 652,
      "兒": 653,
      "兕": 654,
      "兢": 655,
      "入": 656,
      "內": 657,
      "兩": 658,
      "八": 659,
      "公": 660,
      "六": 661,
      "兮": 662,
      "共": 663,
      "兵": 664,
      "其": 665,
      "具": 666,
      "兼": 667,
      "冉": 668,
      "再": 669,
      "冕": 670,
      "冠": 671,
      "冢": 672,
      "冰": 673,
      "冶": 674,
      "凡": 675,
      "凶": 676,
      "出": 677,
      "刀": 678,
      "分": 679,
      "切": 680,
      "刑": 681,
      "列": 682,
      "別": 683,
      "利": 684,
      "到": 685,
      "則": 686,
      "前": 687,
      "剛": 688,
      "割": 689,
      "創": 690,
      "力": 691,
      "功": 692,
      "加": 693,
      "助": 694,
      "勃": 695,
      "勇": 696,
      "勉": 697,
      "動": 698,
      "務": 699,
      "勝": 700,
      "勞": 701,
      "勤": 702,
      "勿": 703,
      "匏": 704,
      "北": 705,
      "匚": 706,
      "匡": 707,
      "匹": 708,
      "匿": 709,
      "區": 710,
      "十": 711,
      "千": 712,
      "卅": 713,
      "升": 714,
      "半": 715,
      "卑": 716,
      "卒": 717,
      "卓": 718,
      "南": 719,
      "博": 720,
      "卞": 721,
      "占": 722,
      "危": 723,
      "即": 724,
      "卷": 725,
      "卿": 726,
      "厚": 727,
      "原": 728,
      "厭": 729,
      "厲": 730,
      "去": 731,
      "參": 732,
      "又": 733,
      "及": 734,
      "友": 735,
      "反": 736,
      "叔": 737,
      "取": 738,
      "受": 739,
      "口": 740,
      "古": 741,
      "叩": 742,
      "召": 743,
      "可": 744,
      "史": 745,
      "右": 746,
      "司": 747,
      "各": 748,
      "合": 749,
      "吉": 750,
      "同": 751,
      "名": 752,
      "后": 753,
      "君": 754,
      "吝": 755,
      "否": 756,
      "吳": 757,
      "吾": 758,
      "告": 759,
      "周": 760,
      "味": 761,
      "呼": 762,
      "命": 763,
      "和": 764,
      "咎": 765,
      "咨": 766,
      "哀": 767,
      "哂": 768,
      "哉": 769,
      "哭": 770,
      "唐": 771,
      "唯": 772,
      "商": 773,
      "問": 774,
      "啟": 775,
      "善": 776,
      "喜": 777,
      "喟": 778,
      "喪": 779,
      "喭": 780,
      "喻": 781,
      "嗅": 782,
      "嗚": 783,
      "嘉": 784,
      "嘗": 785,
      "器": 786,
      "噫": 787,
      "四": 788,
      "回": 789,
      "因": 790,
      "困": 791,
      "固": 792,
      "圃": 793,
      "圉": 794,
      "國": 795,
      "圖": 796,
      "土": 797,
      "在": 798,
      "圭": 799,
      "地": 800,
      "均": 801,
      "坐": 802,
      "坦": 803,
      "坫": 804,
      "城": 805,
      "域": 806,
      "執": 807,
      "堂": 808,
      "堅": 809,
      "堪": 810,
      "堯": 811,
      "報": 812,
      "塗": 813,
      "塞": 814,
      "墜": 815,
      "壞": 816,
      "壤": 817,
      "士": 818,
      "壯": 819,
      "壽": 820,
      "夏": 821,
      "夕": 822,
      "多": 823,
      "夜": 824,
      "夢": 825,
      "大": 826,
      "天": 827,
      "太": 828,
      "夫": 829,
      "夭": 830,
      "失": 831,
      "夷": 832,
      "奇": 833,
      "奔": 834,
      "奚": 835,
      "奡": 836,
      "奢": 837,
      "奧": 838,
      "奪": 839,
      "女": 840,
      "奴": 841,
      "好": 842,
      "如": 843,
      "妻": 844,
      "始": 845,
      "姓": 846,
      "威": 847,
      "婦": 848,
      "媚": 849,
      "媵": 850,
      "子": 851,
      "孔": 852,
      "存": 853,
      "孝": 854,
      "孟": 855,
      "季": 856,
      "孤": 857,
      "孫": 858,
      "孰": 859,
      "學": 860,
      "孺": 861,
      "守": 862,
      "安": 863,
      "宋": 864,
      "完": 865,
      "宗": 866,
      "官": 867,
      "定": 868,
      "宜": 869,
      "客": 870,
      "室": 871,
      "宮": 872,
      "宰": 873,
      "害": 874,
      "宴": 875,
      "家": 876,
      "容": 877,
      "宿": 878,
      "寄": 879,
      "富": 880,
      "寒": 881,
      "察": 882,
      "寡": 883,
      "寢": 884,
      "實": 885,
      "寧": 886,
      "審": 887,
      "寬": 888,
      "寮": 889,
      "寶": 890,
      "封": 891,
      "射": 892,
      "將": 893,
      "專": 894,
      "尊": 895,
      "對": 896,
      "小": 897,
      "少": 898,
      "尚": 899,
      "尤": 900,
      "就": 901,
      "尸": 902,
      "尹": 903,
      "尺": 904,
      "尼": 905,
      "居": 906,
      "屏": 907,
      "屢": 908,
      "履": 909,
      "山": 910,
      "崇": 911,
      "崔": 912,
      "崩": 913,
      "巍": 914,
      "川": 915,
      "州": 916,
      "工": 917,
      "左": 918,
      "巧": 919,
      "巫": 920,
      "己": 921,
      "已": 922,
      "巷": 923,
      "巽": 924,
      "市": 925,
      "布": 926,
      "希": 927,
      "帛": 928,
      "帝": 929,
      "帥": 930,
      "師": 931,
      "席": 932,
      "帶": 933,
      "帷": 934,
      "常": 935,
      "干": 936,
      "平": 937,
      "年": 938,
      "幸": 939,
      "幼": 940,
      "幾": 941,
      "府": 942,
      "度": 943,
      "庭": 944,
      "庶": 945,
      "康": 946,
      "庸": 947,
      "庾": 948,
      "廄": 949,
      "廉": 950,
      "廋": 951,
      "廟": 952,
      "廢": 953,
      "廷": 954,
      "廿": 955,
      "弈": 956,
      "弋": 957,
      "式": 958,
      "弒": 959,
      "弓": 960,
      "弔": 961,
      "弗": 962,
      "弘": 963,
      "弟": 964,
      "弦": 965,
      "張": 966,
      "彌": 967,
      "彫": 968,
      "彬": 969,
      "彭": 970,
      "彼": 971,
      "往": 972,
      "征": 973,
      "待": 974,
      "後": 975,
      "徑": 976,
      "徒": 977,
      "得": 978,
      "從": 979,
      "御": 980,
      "復": 981,
      "循": 982,
      "微": 983,
      "徵": 984,
      "德": 985,
      "徹": 986,
      "徼": 987,
      "心": 988,
      "必": 989,
      "忍": 990,
      "志": 991,
      "忘": 992,
      "忠": 993,
      "忮": 994,
      "念": 995,
      "忽": 996,
      "忿": 997,
      "怍": 998,
      "怒": 999,
      "思": 1000,
      "怡": 1001,
      "急": 1002,
      "性": 1003,
      "怨": 1004,
      "怪": 1005,
      "恂": 1006,
      "恆": 1007,
      "恐": 1008,
      "恕": 1009,
      "恤": 1010,
      "恥": 1011,
      "恭": 1012,
      "息": 1013,
      "悔": 1014,
      "患": 1015,
      "悱": 1016,
      "悲": 1017,
      "悾": 1018,
      "情": 1019,
      "惑": 1020,
      "惜": 1021,
      "惟": 1022,
      "惠": 1023,
      "惡": 1024,
      "惰": 1025,
      "愆": 1026,
      "愈": 1027,
      "愉": 1028,
      "意": 1029,
      "愚": 1030,
      "愛": 1031,
      "感": 1032,
      "愬": 1033,
      "愿": 1034,
      "慈": 1035,
      "慍": 1036,
      "慎": 1037,
      "慝": 1038,
      "慟": 1039,
      "慢": 1040,
      "慧": 1041,
      "慮": 1042,
      "慾": 1043,
      "憂": 1044,
      "憎": 1045,
      "憚": 1046,
      "憤": 1047,
      "憮": 1048,
      "憲": 1049,
      "憾": 1050,
      "應": 1051,
      "懷": 1052,
      "懼": 1053,
      "懿": 1054,
      "戈": 1055,
      "戎": 1056,
      "成": 1057,
      "我": 1058,
      "戒": 1059,
      "或": 1060,
      "戚": 1061,
      "戮": 1062,
      "戰": 1063,
      "戲": 1064,
      "戶": 1065,
      "戾": 1066,
      "所": 1067,
      "手": 1068,
      "才": 1069,
      "扶": 1070,
      "承": 1071,
      "抑": 1072,
      "折": 1073,
      "拒": 1074,
      "拖": 1075,
      "拜": 1076,
      "拱": 1077,
      "持": 1078,
      "指": 1079,
      "掃": 1080,
      "授": 1081,
      "掌": 1082,
      "探": 1083,
      "接": 1084,
      "措": 1085,
      "揖": 1086,
      "揭": 1087,
      "損": 1088,
      "搏": 1089,
      "摯": 1090,
      "撤": 1091,
      "播": 1092,
      "撰": 1093,
      "擇": 1094,
      "擊": 1095,
      "據": 1096,
      "擯": 1097,
      "擾": 1098,
      "攘": 1099,
      "攝": 1100,
      "攷": 1101,
      "改": 1102,
      "攻": 1103,
      "放": 1104,
      "政": 1105,
      "故": 1106,
      "敏": 1107,
      "救": 1108,
      "敗": 1109,
      "教": 1110,
      "敝": 1111,
      "敢": 1112,
      "散": 1113,
      "敬": 1114,
      "數": 1115,
      "斂": 1116,
      "文": 1117,
      "斐": 1118,
      "斗": 1119,
      "斯": 1120,
      "新": 1121,
      "方": 1122,
      "於": 1123,
      "施": 1124,
      "旅": 1125,
      "族": 1126,
      "既": 1127,
      "日": 1128,
      "旨": 1129,
      "昆": 1130,
      "明": 1131,
      "易": 1132,
      "昔": 1133,
      "星": 1134,
      "春": 1135,
      "昭": 1136,
      "是": 1137,
      "時": 1138,
      "晉": 1139,
      "晏": 1140,
      "晝": 1141,
      "晨": 1142,
      "景": 1143,
      "晰": 1144,
      "智": 1145,
      "暇": 1146,
      "暑": 1147,
      "暴": 1148,
      "曆": 1149,
      "曰": 1150,
      "曲": 1151,
      "更": 1152,
      "書": 1153,
      "曾": 1154,
      "會": 1155,
      "月": 1156,
      "有": 1157,
      "朋": 1158,
      "服": 1159,
      "朔": 1160,
      "朕": 1161,
      "望": 1162,
      "朝": 1163,
      "期": 1164,
      "木": 1165,
      "未": 1166,
      "末": 1167,
      "本": 1168,
      "朱": 1169,
      "朽": 1170,
      "李": 1171,
      "材": 1172,
      "杖": 1173,
      "杞": 1174,
      "束": 1175,
      "東": 1176,
      "松": 1177,
      "枉": 1178,
      "析": 1179,
      "枕": 1180,
      "林": 1181,
      "果": 1182,
      "柏": 1183,
      "某": 1184,
      "柔": 1185,
      "柙": 1186,
      "柳": 1187,
      "柴": 1188,
      "栖": 1189,
      "栗": 1190,
      "校": 1191,
      "格": 1192,
      "桀": 1193,
      "桑": 1194,
      "桓": 1195,
      "桴": 1196,
      "梁": 1197,
      "梲": 1198,
      "棄": 1199,
      "棖": 1200,
      "棘": 1201,
      "棣": 1202,
      "棺": 1203,
      "植": 1204,
      "楚": 1205,
      "榮": 1206,
      "槨": 1207,
      "樂": 1208,
      "樊": 1209,
      "樹": 1210,
      "檐": 1211,
      "櫝": 1212,
      "權": 1213,
      "次": 1214,
      "欲": 1215,
      "欺": 1216,
      "歌": 1217,
      "歎": 1218,
      "止": 1219,
      "正": 1220,
      "武": 1221,
      "歲": 1222,
      "歸": 1223,
      "死": 1224,
      "殆": 1225,
      "殖": 1226,
      "殘": 1227,
      "殯": 1228,
      "殷": 1229,
      "殺": 1230,
      "殿": 1231,
      "毀": 1232,
      "毅": 1233,
      "毋": 1234,
      "母": 1235,
      "每": 1236,
      "比": 1237,
      "氏": 1238,
      "民": 1239,
      "氣": 1240,
      "水": 1241,
      "永": 1242,
      "求": 1243,
      "汶": 1244,
      "沂": 1245,
      "沐": 1246,
      "沒": 1247,
      "沛": 1248,
      "沮": 1249,
      "河": 1250,
      "治": 1251,
      "沽": 1252,
      "法": 1253,
      "泥": 1254,
      "泰": 1255,
      "洋": 1256,
      "洒": 1257,
      "津": 1258,
      "流": 1259,
      "浮": 1260,
      "浴": 1261,
      "海": 1262,
      "浸": 1263,
      "涅": 1264,
      "淫": 1265,
      "深": 1266,
      "淵": 1267,
      "淺": 1268,
      "清": 1269,
      "游": 1270,
      "湯": 1271,
      "溝": 1272,
      "溫": 1273,
      "溺": 1274,
      "滅": 1275,
      "滔": 1276,
      "滕": 1277,
      "漆": 1278,
      "漢": 1279,
      "潔": 1280,
      "潤": 1281,
      "澹": 1282,
      "濟": 1283,
      "濫": 1284,
      "瀆": 1285,
      "灌": 1286,
      "火": 1287,
      "為": 1288,
      "烈": 1289,
      "焉": 1290,
      "焚": 1291,
      "無": 1292,
      "然": 1293,
      "煥": 1294,
      "熟": 1295,
      "燕": 1296,
      "燧": 1297,
      "爭": 1298,
      "父": 1299,
      "爾": 1300,
      "牆": 1301,
      "片": 1302,
      "版": 1303,
      "牖": 1304,
      "牛": 1305,
      "牟": 1306,
      "牡": 1307,
      "牢": 1308,
      "物": 1309,
      "犁": 1310,
      "犬": 1311,
      "犯": 1312,
      "狂": 1313,
      "狄": 1314,
      "狎": 1315,
      "狐": 1316,
      "狷": 1317,
      "猛": 1318,
      "猶": 1319,
      "獄": 1320,
      "獨": 1321,
      "獲": 1322,
      "獸": 1323,
      "獻": 1324,
      "玄": 1325,
      "率": 1326,
      "玉": 1327,
      "王": 1328,
      "琢": 1329,
      "瑚": 1330,
      "瑟": 1331,
      "璉": 1332,
      "瓜": 1333,
      "瓢": 1334,
      "甘": 1335,
      "甚": 1336,
      "生": 1337,
      "產": 1338,
      "用": 1339,
      "甫": 1340,
      "甯": 1341,
      "由": 1342,
      "申": 1343,
      "畏": 1344,
      "畔": 1345,
      "畜": 1346,
      "畝": 1347,
      "畫": 1348,
      "異": 1349,
      "當": 1350,
      "疏": 1351,
      "疑": 1352,
      "疚": 1353,
      "疾": 1354,
      "病": 1355,
      "發": 1356,
      "白": 1357,
      "百": 1358,
      "皆": 1359,
      "皇": 1360,
      "皋": 1361,
      "皮": 1362,
      "盈": 1363,
      "益": 1364,
      "盍": 1365,
      "盛": 1366,
      "盜": 1367,
      "盡": 1368,
      "監": 1369,
      "盪": 1370,
      "目": 1371,
      "直": 1372,
      "相": 1373,
      "盼": 1374,
      "省": 1375,
      "眾": 1376,
      "睢": 1377,
      "瞻": 1378,
      "瞽": 1379,
      "矜": 1380,
      "矢": 1381,
      "矣": 1382,
      "知": 1383,
      "矩": 1384,
      "短": 1385,
      "石": 1386,
      "硜": 1387,
      "磋": 1388,
      "磨": 1389,
      "磬": 1390,
      "磷": 1391,
      "示": 1392,
      "社": 1393,
      "祇": 1394,
      "祗": 1395,
      "祝": 1396,
      "神": 1397,
      "祭": 1398,
      "祿": 1399,
      "禘": 1400,
      "禦": 1401,
      "禮": 1402,
      "禱": 1403,
      "禹": 1404,
      "禽": 1405,
      "秀": 1406,
      "私": 1407,
      "秉": 1408,
      "科": 1409,
      "秦": 1410,
      "移": 1411,
      "稱": 1412,
      "稷": 1413,
      "稻": 1414,
      "稼": 1415,
      "穀": 1416,
      "穆": 1417,
      "穴": 1418,
      "空": 1419,
      "穿": 1420,
      "突": 1421,
      "窒": 1422,
      "窬": 1423,
      "窮": 1424,
      "窺": 1425,
      "竊": 1426,
      "立": 1427,
      "章": 1428,
      "童": 1429,
      "竭": 1430,
      "端": 1431,
      "笑": 1432,
      "第": 1433,
      "等": 1434,
      "答": 1435,
      "策": 1436,
      "筲": 1437,
      "箕": 1438,
      "算": 1439,
      "管": 1440,
      "節": 1441,
      "篤": 1442,
      "簞": 1443,
      "簡": 1444,
      "簣": 1445,
      "籩": 1446,
      "粟": 1447,
      "精": 1448,
      "糞": 1449,
      "糧": 1450,
      "糾": 1451,
      "紂": 1452,
      "約": 1453,
      "紅": 1454,
      "納": 1455,
      "純": 1456,
      "素": 1457,
      "紫": 1458,
      "細": 1459,
      "紳": 1460,
      "紺": 1461,
      "終": 1462,
      "絏": 1463,
      "絕": 1464,
      "絞": 1465,
      "絢": 1466,
      "給": 1467,
      "絺": 1468,
      "綌": 1469,
      "綏": 1470,
      "經": 1471,
      "維": 1472,
      "綱": 1473,
      "綽": 1474,
      "緅": 1475,
      "緇": 1476,
      "縕": 1477,
      "縱": 1478,
      "縲": 1479,
      "總": 1480,
      "繚": 1481,
      "繪": 1482,
      "繫": 1483,
      "繳": 1484,
      "繹": 1485,
      "繼": 1486,
      "缺": 1487,
      "罔": 1488,
      "罕": 1489,
      "罪": 1490,
      "罰": 1491,
      "罷": 1492,
      "羊": 1493,
      "美": 1494,
      "羔": 1495,
      "羞": 1496,
      "群": 1497,
      "義": 1498,
      "羹": 1499,
      "羽": 1500,
      "羿": 1501,
      "習": 1502,
      "翔": 1503,
      "翕": 1504,
      "翼": 1505,
      "老": 1506,
      "者": 1507,
      "而": 1508,
      "耕": 1509,
      "耦": 1510,
      "耰": 1511,
      "耳": 1512,
      "聖": 1513,
      "聚": 1514,
      "聞": 1515,
      "聰": 1516,
      "聲": 1517,
      "聽": 1518,
      "肆": 1519,
      "肉": 1520,
      "肥": 1521,
      "肩": 1522,
      "肱": 1523,
      "肸": 1524,
      "能": 1525,
      "脛": 1526,
      "脩": 1527,
      "脯": 1528,
      "腥": 1529,
      "膚": 1530,
      "膾": 1531,
      "臣": 1532,
      "臧": 1533,
      "臨": 1534,
      "自": 1535,
      "臭": 1536,
      "至": 1537,
      "致": 1538,
      "臺": 1539,
      "臾": 1540,
      "與": 1541,
      "興": 1542,
      "舉": 1543,
      "舊": 1544,
      "舌": 1545,
      "舍": 1546,
      "舜": 1547,
      "舞": 1548,
      "舟": 1549,
      "良": 1550,
      "色": 1551,
      "芸": 1552,
      "苗": 1553,
      "苟": 1554,
      "若": 1555,
      "茍": 1556,
      "茲": 1557,
      "草": 1558,
      "荊": 1559,
      "荏": 1560,
      "荷": 1561,
      "莊": 1562,
      "莒": 1563,
      "莞": 1564,
      "莫": 1565,
      "菜": 1566,
      "華": 1567,
      "菲": 1568,
      "萬": 1569,
      "葉": 1570,
      "葬": 1571,
      "葸": 1572,
      "蒙": 1573,
      "蒞": 1574,
      "蓋": 1575,
      "蓧": 1576,
      "蔡": 1577,
      "蔽": 1578,
      "蕢": 1579,
      "蕩": 1580,
      "蕭": 1581,
      "薄": 1582,
      "薑": 1583,
      "薛": 1584,
      "薦": 1585,
      "薨": 1586,
      "藏": 1587,
      "藝": 1588,
      "藥": 1589,
      "藻": 1590,
      "蘧": 1591,
      "虎": 1592,
      "虐": 1593,
      "處": 1594,
      "虛": 1595,
      "虞": 1596,
      "蠻": 1597,
      "血": 1598,
      "行": 1599,
      "衛": 1600,
      "衡": 1601,
      "衣": 1602,
      "表": 1603,
      "衰": 1604,
      "衽": 1605,
      "袂": 1606,
      "袍": 1607,
      "袗": 1608,
      "被": 1609,
      "裁": 1610,
      "裘": 1611,
      "裨": 1612,
      "裳": 1613,
      "褻": 1614,
      "襁": 1615,
      "襄": 1616,
      "西": 1617,
      "要": 1618,
      "覆": 1619,
      "見": 1620,
      "視": 1621,
      "親": 1622,
      "覺": 1623,
      "覿": 1624,
      "觀": 1625,
      "角": 1626,
      "觚": 1627,
      "言": 1628,
      "討": 1629,
      "訐": 1630,
      "訒": 1631,
      "訕": 1632,
      "託": 1633,
      "訟": 1634,
      "訥": 1635,
      "詐": 1636,
      "詠": 1637,
      "試": 1638,
      "詩": 1639,
      "誄": 1640,
      "誅": 1641,
      "誘": 1642,
      "語": 1643,
      "誠": 1644,
      "誣": 1645,
      "誦": 1646,
      "誨": 1647,
      "說": 1648,
      "誰": 1649,
      "誾": 1650,
      "諂": 1651,
      "請": 1652,
      "諒": 1653,
      "論": 1654,
      "諫": 1655,
      "諶": 1656,
      "諸": 1657,
      "諾": 1658,
      "謀": 1659,
      "謂": 1660,
      "謗": 1661,
      "講": 1662,
      "謹": 1663,
      "證": 1664,
      "譎": 1665,
      "譖": 1666,
      "識": 1667,
      "譬": 1668,
      "議": 1669,
      "譽": 1670,
      "讀": 1671,
      "變": 1672,
      "讓": 1673,
      "豆": 1674,
      "豈": 1675,
      "豚": 1676,
      "豹": 1677,
      "貉": 1678,
      "貊": 1679,
      "貌": 1680,
      "貞": 1681,
      "負": 1682,
      "貢": 1683,
      "貧": 1684,
      "貨": 1685,
      "貪": 1686,
      "貫": 1687,
      "責": 1688,
      "貳": 1689,
      "貴": 1690,
      "費": 1691,
      "賈": 1692,
      "賊": 1693,
      "賓": 1694,
      "賚": 1695,
      "賜": 1696,
      "賞": 1697,
      "賢": 1698,
      "賣": 1699,
      "賤": 1700,
      "賦": 1701,
      "質": 1702,
      "赤": 1703,
      "赦": 1704,
      "起": 1705,
      "趙": 1706,
      "趨": 1707,
      "足": 1708,
      "跡": 1709,
      "路": 1710,
      "踐": 1711,
      "踖": 1712,
      "踧": 1713,
      "踰": 1714,
      "蹈": 1715,
      "蹜": 1716,
      "躁": 1717,
      "躩": 1718,
      "身": 1719,
      "躬": 1720,
      "車": 1721,
      "軍": 1722,
      "軏": 1723,
      "輅": 1724,
      "輔": 1725,
      "輕": 1726,
      "輗": 1727,
      "輟": 1728,
      "輿": 1729,
      "辟": 1730,
      "辨": 1731,
      "辭": 1732,
      "辰": 1733,
      "辱": 1734,
      "農": 1735,
      "迂": 1736,
      "迅": 1737,
      "近": 1738,
      "述": 1739,
      "迷": 1740,
      "追": 1741,
      "退": 1742,
      "送": 1743,
      "适": 1744,
      "逆": 1745,
      "通": 1746,
      "逝": 1747,
      "逞": 1748,
      "速": 1749,
      "造": 1750,
      "連": 1751,
      "逮": 1752,
      "進": 1753,
      "逸": 1754,
      "遂": 1755,
      "遇": 1756,
      "遊": 1757,
      "過": 1758,
      "道": 1759,
      "達": 1760,
      "違": 1761,
      "遠": 1762,
      "適": 1763,
      "遲": 1764,
      "遷": 1765,
      "選": 1766,
      "遺": 1767,
      "邇": 1768,
      "邑": 1769,
      "邦": 1770,
      "邪": 1771,
      "郁": 1772,
      "鄉": 1773,
      "鄙": 1774,
      "鄭": 1775,
      "鄰": 1776,
      "鄹": 1777,
      "酒": 1778,
      "醃": 1779,
      "醫": 1780,
      "醬": 1781,
      "里": 1782,
      "重": 1783,
      "野": 1784,
      "量": 1785,
      "釜": 1786,
      "釣": 1787,
      "錦": 1788,
      "錯": 1789,
      "鍾": 1790,
      "鏗": 1791,
      "鐸": 1792,
      "鑽": 1793,
      "長": 1794,
      "門": 1795,
      "開": 1796,
      "閑": 1797,
      "閒": 1798,
      "間": 1799,
      "閔": 1800,
      "閾": 1801,
      "闕": 1802,
      "關": 1803,
      "防": 1804,
      "阼": 1805,
      "附": 1806,
      "陋": 1807,
      "降": 1808,
      "陪": 1809,
      "陰": 1810,
      "陳": 1811,
      "陵": 1812,
      "陶": 1813,
      "陷": 1814,
      "陽": 1815,
      "隅": 1816,
      "階": 1817,
      "際": 1818,
      "隨": 1819,
      "隱": 1820,
      "雅": 1821,
      "集": 1822,
      "雉": 1823,
      "雌": 1824,
      "雍": 1825,
      "雕": 1826,
      "雖": 1827,
      "雞": 1828,
      "離": 1829,
      "難": 1830,
      "雩": 1831,
      "雲": 1832,
      "雷": 1833,
      "霸": 1834,
      "靈": 1835,
      "靜": 1836,
      "非": 1837,
      "面": 1838,
      "革": 1839,
      "鞠": 1840,
      "鞭": 1841,
      "鞹": 1842,
      "韞": 1843,
      "韶": 1844,
      "順": 1845,
      "須": 1846,
      "頌": 1847,
      "顏": 1848,
      "顓": 1849,
      "願": 1850,
      "顛": 1851,
      "類": 1852,
      "顧": 1853,
      "風": 1854,
      "食": 1855,
      "飪": 1856,
      "飯": 1857,
      "飲": 1858,
      "飽": 1859,
      "飾": 1860,
      "養": 1861,
      "餒": 1862,
      "餓": 1863,
      "餘": 1864,
      "餲": 1865,
      "餼": 1866,
      "饉": 1867,
      "饋": 1868,
      "饌": 1869,
      "饐": 1870,
      "饑": 1871,
      "首": 1872,
      "馬": 1873,
      "馮": 1874,
      "駕": 1875,
      "駟": 1876,
      "駢": 1877,
      "騂": 1878,
      "騧": 1879,
      "騫": 1880,
      "驕": 1881,
      "驥": 1882,
      "高": 1883,
      "髮": 1884,
      "鬥": 1885,
      "鬼": 1886,
      "魋": 1887,
      "魏": 1888,
      "魚": 1889,
      "魯": 1890,
      "鮀": 1891,
      "鮮": 1892,
      "鯉": 1893,
      "鳥": 1894,
      "鳳": 1895,
      "鳴": 1896,
      "麑": 1897,
      "麻": 1898,
      "黃": 1899,
      "黍": 1900,
      "默": 1901,
      "黜": 1902,
      "點": 1903,
      "黨": 1904,
      "黻": 1905,
      "黽": 1906,
      "鼓": 1907,
      "齊": 1908,
      "齒": 1909,
      "龜": 1910,
      "（": 1911,
      "）": 1912,
      "＋": 1913,
      "，": 1914,
      "；": 1915,
      "？": 1916,
      "､": 1917,
      "th": 1918,
      "the": 1919,
      "in": 1920,
      "an": 1921,
      "re": 1922,
      "er": 1923,
      "on": 1924,
      "at": 1925,
      "en": 1926,
      "of": 1927,
      "is": 1928,
      "ou": 1929,
      "and": 1930,
      "to": 1931,
      "ed": 1932,
      "or": 1933,
      "es": 1934,
      "as": 1935,
      "it": 1936,
      "al": 1937,
      "ar": 1938,
      "ing": 1939,
      "he": 1940,
      "se": 1941,
      "st": 1942,
      "le": 1943,
      "ch": 1944,
      "om": 1945,
      "be": 1946,
      "wh": 1947,
      "ion": 1948,
      "no": 1949,
      "ly": 1950,
      "ce": 1951,
      "ad": 1952,
      "ve": 1953,
      "wi": 1954,
      "im": 1955,
      "that": 1956,
      "ent": 1957,
      "ll": 1958,
      "ut": 1959,
      "ct": 1960,
      "ro": 1961,
      "for": 1962,
      "id": 1963,
      "gh": 1964,
      "ir": 1965,
      "ld": 1966,
      "we": 1967,
      "li": 1968,
      "ver": 1969,
      "me": 1970,
      "ay": 1971,
      "with": 1972,
      "his": 1973,
      "su": 1974,
      "ri": 1975,
      "all": 1976,
      "ha": 1977,
      "not": 1978,
      "was": 1979,
      "ow": 1980,
      "un": 1981,
      "con": 1982,
      "de": 1983,
      "us": 1984,
      "ic": 1985,
      "ther": 1986,
      "ter": 1987,
      "you": 1988,
      "so": 1989,
      "whi": 1990,
      "are": 1991,
      "mo": 1992,
      "by": 1993,
      "ain": 1994,
      "ght": 1995,
      "fe": 1996,
      "The": 1997,
      "ab": 1998,
      "ur": 1999,
      "ag": 2000,
      "pe": 2001,
      "which": 2002,
      "lo": 2003,
      "ess": 2004,
      "po": 2005,
      "ac": 2006,
      "ation": 2007,
      "ex": 2008,
      "fr": 2009,
      "per": 2010,
      "nd": 2011,
      "sh": 2012,
      "one": 2013,
      "ould": 2014,
      "am": 2015,
      "our": 2016,
      "com": 2017,
      "ke": 2018,
      "ne": 2019,
      "od": 2020,
      "ul": 2021,
      "but": 2022,
      "her": 2023,
      "qu": 2024,
      "this": 2025,
      "if": 2026,
      "res": 2027,
      "have": 2028,
      "et": 2029,
      "sa": 2030,
      "him": 2031,
      "from": 2032,
      "out": 2033,
      "had": 2034,
      "tr": 2035,
      "te": 2036,
      "il": 2037,
      "man": 2038,
      "my": 2039,
      "ous": 2040,
      "they": 2041,
      "pro": 2042,
      "red": 2043,
      "est": 2044,
      "ant": 2045,
      "ap": 2046,
      "ate": 2047,
      "up": 2048,
      "ist": 2049,
      "who": 2050,
      "their": 2051,
      "ity": 2052,
      "art": 2053,
      "go": 2054,
      "ind": 2055,
      "pl": 2056,
      "sel": 2057,
      "fo": 2058,
      "wor": 2059,
      "ust": 2060,
      "do": 2061,
      "end": 2062,
      "them": 2063,
      "now": 2064,
      "em": 2065,
      "co": 2066,
      "other": 2067,
      "ome": 2068,
      "ard": 2069,
      "thing": 2070,
      "she": 2071,
      "pr": 2072,
      "ci": 2073,
      "very": 2074,
      "ive": 2075,
      "were": 2076,
      "ill": 2077,
      "act": 2078,
      "um": 2079,
      "there": 2080,
      "ge": 2081,
      "ast": 2082,
      "ong": 2083,
      "der": 2084,
      "ure": 2085,
      "ven": 2086,
      "ound": 2087,
      "op": 2088,
      "ig": 2089,
      "will": 2090,
      "ence": 2091,
      "any": 2092,
      "ca": 2093,
      "ight": 2094,
      "self": 2095,
      "ak": 2096,
      "ish": 2097,
      "more": 2098,
      "reat": 2099,
      "thou": 2100,
      "way": 2101,
      "able": 2102,
      "Th": 2103,
      "here": 2104,
      "ace": 2105,
      "some": 2106,
      "can": 2107,
      "would": 2108,
      "la": 2109,
      "its": 2110,
      "nt": 2111,
      "ho": 2112,
      "ment": 2113,
      "ans": 2114,
      "ers": 2115,
      "iv": 2116,
      "ies": 2117,
      "what": 2118,
      "pos": 2119,
      "And": 2120,
      "He": 2121,
      "dis": 2122,
      "ok": 2123,
      "when": 2124,
      "been": 2125,
      "ance": 2126,
      "ine": 2127,
      "ass": 2128,
      "fore": 2129,
      "said": 2130,
      "own": 2131,
      "ions": 2132,
      "pres": 2133,
      "pt": 2134,
      "has": 2135,
      "ect": 2136,
      "af": 2137,
      "ort": 2138,
      "ret": 2139,
      "ide": 2140,
      "But": 2141,
      "gr": 2142,
      "ol": 2143,
      "part": 2144,
      "tim": 2145,
      "ber": 2146,
      "ject": 2147,
      "know": 2148,
      "ob": 2149,
      "may": 2150,
      "ally": 2151,
      "Wh": 2152,
      "bo": 2153,
      "than": 2154,
      "use": 2155,
      "sp": 2156,
      "ake": 2157,
      "ie": 2158,
      "ple": 2159,
      "only": 2160,
      "ach": 2161,
      "urn": 2162,
      "into": 2163,
      "el": 2164,
      "ra": 2165,
      "It": 2166,
      "age": 2167,
      "ree": 2168,
      "si": 2169,
      "ble": 2170,
      "then": 2171,
      "tain": 2172,
      "fa": 2173,
      "ary": 2174,
      "form": 2175,
      "ang": 2176,
      "ire": 2177,
      "In": 2178,
      "cl": 2179,
      "itt": 2180,
      "wo": 2181,
      "great": 2182,
      "ated": 2183,
      "ry": 2184,
      "your": 2185,
      "ear": 2186,
      "ose": 2187,
      "most": 2188,
      "ves": 2189,
      "des": 2190,
      "pre": 2191,
      "these": 2192,
      "ite": 2193,
      "str": 2194,
      "ful": 2195,
      "ue": 2196,
      "bl": 2197,
      "like": 2198,
      "ck": 2199,
      "such": 2200,
      "int": 2201,
      "say": 2202,
      "time": 2203,
      "ser": 2204,
      "ice": 2205,
      "fir": 2206,
      "ud": 2207,
      "ade": 2208,
      "see": 2209,
      "br": 2210,
      "could": 2211,
      "must": 2212,
      "day": 2213,
      "Ch": 2214,
      "ty": 2215,
      "ved": 2216,
      "should": 2217,
      "pp": 2218,
      "upon": 2219,
      "spe": 2220,
      "ough": 2221,
      "ness": 2222,
      "read": 2223,
      "under": 2224,
      "ep": 2225,
      "men": 2226,
      "uch": 2227,
      "cou": 2228,
      "ren": 2229,
      "over": 2230,
      "row": 2231,
      "ise": 2232,
      "long": 2233,
      "ack": 2234,
      "ph": 2235,
      "work": 2236,
      "cess": 2237,
      "again": 2238,
      "ations": 2239,
      "ces": 2240,
      "ious": 2241,
      "less": 2242,
      "where": 2243,
      "come": 2244,
      "ign": 2245,
      "cor": 2246,
      "those": 2247,
      "about": 2248,
      "fl": 2249,
      "ot": 2250,
      "same": 2251,
      "every": 2252,
      "ink": 2253,
      "ens": 2254,
      "ition": 2255,
      "cons": 2256,
      "two": 2257,
      "mon": 2258,
      "after": 2259,
      "gen": 2260,
      "ving": 2261,
      "nat": 2262,
      "dist": 2263,
      "off": 2264,
      "cer": 2265,
      "hand": 2266,
      "son": 2267,
      "good": 2268,
      "first": 2269,
      "ction": 2270,
      "na": 2271,
      "did": 2272,
      "even": 2273,
      "much": 2274,
      "right": 2275,
      "without": 2276,
      "ward": 2277,
      "ath": 2278,
      "dif": 2279,
      "sub": 2280,
      "well": 2281,
      "being": 2282,
      "sto": 2283,
      "bet": 2284,
      "before": 2285,
      "ase": 2286,
      "mar": 2287,
      "att": 2288,
      "ef": 2289,
      "look": 2290,
      "made": 2291,
      "du": 2292,
      "ps": 2293,
      "cause": 2294,
      "let": 2295,
      "ev": 2296,
      "ia": 2297,
      "shall": 2298,
      "ily": 2299,
      "cont": 2300,
      "ian": 2301,
      "lic": 2302,
      "ical": 2303,
      "gl": 2304,
      "pass": 2305,
      "call": 2306,
      "light": 2307,
      "We": 2308,
      "sc": 2309,
      "arm": 2310,
      "how": 2311,
      "ittle": 2312,
      "just": 2313,
      "fect": 2314,
      "new": 2315,
      "himself": 2316,
      "ave": 2317,
      "word": 2318,
      "might": 2319,
      "though": 2320,
      "Pro": 2321,
      "ince": 2322,
      "little": 2323,
      "life": 2324,
      "ced": 2325,
      "llow": 2326,
      "hi": 2327,
      "reas": 2328,
      "port": 2329,
      "au": 2330,
      "ext": 2331,
      "thr": 2332,
      "never": 2333,
      "vi": 2334,
      "appe": 2335,
      "comp": 2336,
      "present": 2337,
      "cour": 2338,
      "This": 2339,
      "God": 2340,
      "med": 2341,
      "old": 2342,
      "led": 2343,
      "many": 2344,
      "seem": 2345,
      "make": 2346,
      "stand": 2347,
      "For": 2348,
      "lect": 2349,
      "return": 2350,
      "ey": 2351,
      "ings": 2352,
      "rest": 2353,
      "thought": 2354,
      "ever": 2355,
      "ople": 2356,
      "tor": 2357,
      "cept": 2358,
      "lt": 2359,
      "things": 2360,
      "law": 2361,
      "If": 2362,
      "gener": 2363,
      "sm": 2364,
      "came": 2365,
      "press": 2366,
      "ates": 2367,
      "still": 2368,
      "cr": 2369,
      "reg": 2370,
      "beg": 2371,
      "think": 2372,
      "ning": 2373,
      "too": 2374,
      "nor": 2375,
      "sur": 2376,
      "also": 2377,
      "ten": 2378,
      "uten": 2379,
      "ways": 2380,
      "down": 2381,
      "place": 2382,
      "found": 2383,
      "ater": 2384,
      "ower": 2385,
      "ought": 2386,
      "berg": 2387,
      "ked": 2388,
      "thy": 2389,
      "went": 2390,
      "ied": 2391,
      "To": 2392,
      "ars": 2393,
      "certain": 2394,
      "through": 2395,
      "yet": 2396,
      "land": 2397,
      "tem": 2398,
      "try": 2399,
      "utenberg": 2400,
      "people": 2401,
      "Mr": 2402,
      "ither": 2403,
      "bod": 2404,
      "atter": 2405,
      "ted": 2406,
      "mind": 2407,
      "You": 2408,
      "put": 2409,
      "ith": 2410,
      "comm": 2411,
      "cond": 2412,
      "another": 2413,
      "av": 2414,
      "par": 2415,
      "ual": 2416,
      "oc": 2417,
      "sen": 2418,
      "ial": 2419,
      "mor": 2420,
      "ents": 2421,
      "year": 2422,
      "sol": 2423,
      "inter": 2424,
      "ts": 2425,
      "fin": 2426,
      "den": 2427,
      "selves": 2428,
      "cur": 2429,
      "icul": 2430,
      "pri": 2431,
      "king": 2432,
      "min": 2433,
      "ild": 2434,
      "und": 2435,
      "wr": 2436,
      "cle": 2437,
      "ner": 2438,
      "cri": 2439,
      "kind": 2440,
      "ull": 2441,
      "She": 2442,
      "get": 2443,
      "nothing": 2444,
      "reason": 2445,
      "Project": 2446,
      "Gutenberg": 2447,
      "pect": 2448,
      "ord": 2449,
      "iss": 2450,
      "ished": 2451,
      "fer": 2452,
      "ress": 2453,
      "mer": 2454,
      "main": 2455,
      "les": 2456,
      "rent": 2457,
      "head": 2458,
      "ss": 2459,
      "char": 2460,
      "ip": 2461,
      "because": 2462,
      "ors": 2463,
      "vers": 2464,
      "while": 2465,
      "whole": 2466,
      "tak": 2467,
      "There": 2468,
      "cho": 2469,
      "take": 2470,
      "coun": 2471,
      "happ": 2472,
      "ub": 2473,
      "fri": 2474,
      "last": 2475,
      "col": 2476,
      "each": 2477,
      "point": 2478,
      "clo": 2479,
      "St": 2480,
      "always": 2481,
      "jo": 2482,
      "What": 2483,
      "That": 2484,
      "world": 2485,
      "bro": 2486,
      "val": 2487,
      "ited": 2488,
      "set": 2489,
      "iz": 2490,
      "ently": 2491,
      "They": 2492,
      "lie": 2493,
      "ks": 2494,
      "tell": 2495,
      "far": 2496,
      "give": 2497,
      "car": 2498,
      "Ar": 2499,
      "away": 2500,
      "back": 2501,
      "diffe": 2502,
      "air": 2503,
      "rel": 2504,
      "side": 2505,
      "ng": 2506,
      "inst": 2507,
      "peri": 2508,
      "ft": 2509,
      "fact": 2510,
      "count": 2511,
      "turn": 2512,
      "ouse": 2513,
      "sim": 2514,
      "sha": 2515,
      "adv": 2516,
      "cap": 2517,
      "feel": 2518,
      "ween": 2519,
      "don": 2520,
      "ange": 2521,
      "When": 2522,
      "cy": 2523,
      "person": 2524,
      "follow": 2525,
      "ii": 2526,
      "fort": 2527,
      "ick": 2528,
      "gu": 2529,
      "love": 2530,
      "As": 2531,
      "find": 2532,
      "tri": 2533,
      "name": 2534,
      "both": 2535,
      "night": 2536,
      "once": 2537,
      "against": 2538,
      "between": 2539,
      "pur": 2540,
      "face": 2541,
      "order": 2542,
      "cord": 2543,
      "does": 2544,
      "called": 2545,
      "heart": 2546,
      "tal": 2547,
      "serv": 2548,
      "ened": 2549,
      "num": 2550,
      "wards": 2551,
      "object": 2552,
      "body": 2553,
      "sible": 2554,
      "bed": 2555,
      "ile": 2556,
      "ared": 2557,
      "high": 2558,
      "three": 2559,
      "equ": 2560,
      "cannot": 2561,
      "friend": 2562,
      "used": 2563,
      "sy": 2564,
      "power": 2565,
      "So": 2566,
      "tru": 2567,
      "ix": 2568,
      "ond": 2569,
      "oman": 2570,
      "gi": 2571,
      "rep": 2572,
      "cent": 2573,
      "therefore": 2574,
      "ities": 2575,
      "ins": 2576,
      "suf": 2577,
      "No": 2578,
      "pleas": 2579,
      "add": 2580,
      "ount": 2581,
      "ms": 2582,
      "pose": 2583,
      "nature": 2584,
      "aw": 2585,
      "ants": 2586,
      "bre": 2587,
      "cas": 2588,
      "ius": 2589,
      "thus": 2590,
      "house": 2591,
      "aid": 2592,
      "vis": 2593,
      "requ": 2594,
      "ments": 2595,
      "ceiv": 2596,
      "war": 2597,
      "als": 2598,
      "eyes": 2599,
      "bit": 2600,
      "cop": 2601,
      "themselves": 2602,
      "TH": 2603,
      "itself": 2604,
      "inde": 2605,
      "whom": 2606,
      "ready": 2607,
      "father": 2608,
      "eng": 2609,
      "ys": 2610,
      "plain": 2611,
      "state": 2612,
      "sou": 2613,
      "ians": 2614,
      "ider": 2615,
      "eas": 2616,
      "itu": 2617,
      "vol": 2618,
      "wever": 2619,
      "ting": 2620,
      "child": 2621,
      "lig": 2622,
      "ute": 2623,
      "speak": 2624,
      "produ": 2625,
      "ances": 2626,
      "lar": 2627,
      "II": 2628,
      "ures": 2629,
      "ters": 2630,
      "sk": 2631,
      "necess": 2632,
      "vo": 2633,
      "An": 2634,
      "young": 2635,
      "ark": 2636,
      "ult": 2637,
      "prin": 2638,
      "Se": 2639,
      "words": 2640,
      "Of": 2641,
      "whe": 2642,
      "sup": 2643,
      "inte": 2644,
      "ended": 2645,
      "Chr": 2646,
      "having": 2647,
      "soon": 2648,
      "His": 2649,
      "Fr": 2650,
      "want": 2651,
      "got": 2652,
      "small": 2653,
      "ove": 2654,
      "var": 2655,
      "spir": 2656,
      "country": 2657,
      "contin": 2658,
      "ised": 2659,
      "years": 2660,
      "hold": 2661,
      "course": 2662,
      "either": 2663,
      "left": 2664,
      "posed": 2665,
      "sing": 2666,
      "quest": 2667,
      "others": 2668,
      "saw": 2669,
      "On": 2670,
      "sent": 2671,
      "app": 2672,
      "ref": 2673,
      "subject": 2674,
      "ier": 2675,
      "cu": 2676,
      "gether": 2677,
      "ating": 2678,
      "ale": 2679,
      "suc": 2680,
      "iness": 2681,
      "fam": 2682,
      "together": 2683,
      "mean": 2684,
      "At": 2685,
      "room": 2686,
      "emp": 2687,
      "ron": 2688,
      "mak": 2689,
      "ages": 2690,
      "seen": 2691,
      "hor": 2692,
      "among": 2693,
      "full": 2694,
      "omen": 2695,
      "cted": 2696,
      "Con": 2697,
      "sat": 2698,
      "ility": 2699,
      "cal": 2700,
      "case": 2701,
      "hu": 2702,
      "dire": 2703,
      "leg": 2704,
      "Christ": 2705,
      "ene": 2706,
      "sil": 2707,
      "appear": 2708,
      "fall": 2709,
      "different": 2710,
      "round": 2711,
      "took": 2712,
      "wn": 2713,
      "something": 2714,
      "mom": 2715,
      "real": 2716,
      "trans": 2717,
      "unt": 2718,
      "che": 2719,
      "ired": 2720,
      "ides": 2721,
      "ribut": 2722,
      "low": 2723,
      "consider": 2724,
      "natur": 2725,
      "however": 2726,
      "os": 2727,
      "general": 2728,
      "conf": 2729,
      "dr": 2730,
      "since": 2731,
      "remain": 2732,
      "Then": 2733,
      "18": 2734,
      "Pr": 2735,
      "possible": 2736,
      "bes": 2737,
      "hon": 2738,
      "thee": 2739,
      "ov": 2740,
      "cir": 2741,
      "lad": 2742,
      "matter": 2743,
      "true": 2744,
      "given": 2745,
      "belie": 2746,
      "stru": 2747,
      "haps": 2748,
      "inc": 2749,
      "sum": 2750,
      "ls": 2751,
      "prov": 2752,
      "ned": 2753,
      "wa": 2754,
      "near": 2755,
      "better": 2756,
      "jud": 2757,
      "means": 2758,
      "dou": 2759,
      "ta": 2760,
      "position": 2761,
      "ird": 2762,
      "soci": 2763,
      "death": 2764,
      "myself": 2765,
      "bar": 2766,
      "ately": 2767,
      "aven": 2768,
      "tom": 2769,
      "Be": 2770,
      "contr": 2771,
      "ung": 2772,
      "tory": 2773,
      "omet": 2774,
      "itch": 2775,
      "heard": 2776,
      "ours": 2777,
      "ably": 2778,
      "ER": 2779,
      "ru": 2780,
      "often": 2781,
      "care": 2782,
      "bu": 2783,
      "whose": 2784,
      "log": 2785,
      "aster": 2786,
      "ush": 2787,
      "understand": 2788,
      "ceed": 2789,
      "ement": 2790,
      "medi": 2791,
      "water": 2792,
      "dom": 2793,
      "proper": 2794,
      "won": 2795,
      "Now": 2796,
      "fic": 2797,
      "aut": 2798,
      "works": 2799,
      "div": 2800,
      "accord": 2801,
      "vent": 2802,
      "reme": 2803,
      "show": 2804,
      "ution": 2805,
      "ship": 2806,
      "ream": 2807,
      "lied": 2808,
      "ye": 2809,
      "done": 2810,
      "hal": 2811,
      "need": 2812,
      "exist": 2813,
      "mother": 2814,
      "dra": 2815,
      "mis": 2816,
      "cus": 2817,
      "ety": 2818,
      "spo": 2819,
      "few": 2820,
      "moment": 2821,
      "known": 2822,
      "ma": 2823,
      "ceived": 2824,
      "rence": 2825,
      "rew": 2826,
      "earth": 2827,
      "ried": 2828,
      "cious": 2829,
      "play": 2830,
      "ged": 2831,
      "princi": 2832,
      "exp": 2833,
      "ield": 2834,
      "action": 2835,
      "free": 2836,
      "lay": 2837,
      "sure": 2838,
      "di": 2839,
      "hard": 2840,
      "hel": 2841,
      "ory": 2842,
      "arch": 2843,
      "imp": 2844,
      "ao": 2845,
      "atch": 2846,
      "que": 2847,
      "ific": 2848,
      "00": 2849,
      "whether": 2850,
      "almost": 2851,
      "days": 2852,
      "ient": 2853,
      "elect": 2854,
      "pain": 2855,
      "ash": 2856,
      "prom": 2857,
      "tern": 2858,
      "mot": 2859,
      "anim": 2860,
      "effect": 2861,
      "blo": 2862,
      "stood": 2863,
      "sec": 2864,
      "keep": 2865,
      "ines": 2866,
      "imes": 2867,
      "thor": 2868,
      "aces": 2869,
      "ular": 2870,
      "With": 2871,
      "express": 2872,
      "second": 2873,
      "ism": 2874,
      "rather": 2875,
      "four": 2876,
      "cum": 2877,
      "told": 2878,
      "sense": 2879,
      "ined": 2880,
      "alone": 2881,
      "perhaps": 2882,
      "iew": 2883,
      "common": 2884,
      "sequ": 2885,
      "taken": 2886,
      "ible": 2887,
      "hear": 2888,
      "human": 2889,
      "wind": 2890,
      "ran": 2891,
      "wise": 2892,
      "till": 2893,
      "ste": 2894,
      "quite": 2895,
      "city": 2896,
      "icular": 2897,
      "live": 2898,
      "hands": 2899,
      "view": 2900,
      "ative": 2901,
      "going": 2902,
      "home": 2903,
      "sult": 2904,
      "respect": 2905,
      "above": 2906,
      "All": 2907,
      "already": 2908,
      "ze": 2909,
      "felt": 2910,
      "truth": 2911,
      "irt": 2912,
      "ground": 2913,
      "looked": 2914,
      "continu": 2915,
      "lies": 2916,
      "exam": 2917,
      "bus": 2918,
      "lear": 2919,
      "itions": 2920,
      "ident": 2921,
      "charact": 2922,
      "anger": 2923,
      "number": 2924,
      "diff": 2925,
      "My": 2926,
      "gave": 2927,
      "Li": 2928,
      "seemed": 2929,
      "oud": 2930,
      "ided": 2931,
      "enough": 2932,
      "interest": 2933,
      "sun": 2934,
      "AN": 2935,
      "within": 2936,
      "fair": 2937,
      "knowled": 2938,
      "asked": 2939,
      "ross": 2940,
      "grow": 2941,
      "least": 2942,
      "dec": 2943,
      "THE": 2944,
      "began": 2945,
      "doub": 2946,
      "according": 2947,
      "ublic": 2948,
      "fully": 2949,
      "sever": 2950,
      "prof": 2951,
      "iter": 2952,
      "aced": 2953,
      "obser": 2954,
      "force": 2955,
      "stant": 2956,
      "bor": 2957,
      "ask": 2958,
      "wish": 2959,
      "dden": 2960,
      "ense": 2961,
      "17": 2962,
      "soul": 2963,
      "copy": 2964,
      "ives": 2965,
      "strong": 2966,
      "lau": 2967,
      "10": 2968,
      "sess": 2969,
      "supp": 2970,
      "dest": 2971,
      "mere": 2972,
      "igh": 2973,
      "half": 2974,
      "undred": 2975,
      "comple": 2976,
      "account": 2977,
      "lim": 2978,
      "mil": 2979,
      "Bo": 2980,
      "oney": 2981,
      "particular": 2982,
      "How": 2983,
      "def": 2984,
      "natural": 2985,
      "woman": 2986,
      "mag": 2987,
      "joy": 2988,
      "ane": 2989,
      "Un": 2990,
      "hundred": 2991,
      "times": 2992,
      "open": 2993,
      "sudden": 2994,
      "exc": 2995,
      "beaut": 2996,
      "ga": 2997,
      "success": 2998,
      "possess": 2999,
      "ele": 3000,
      "best": 3001,
      "indeed": 3002,
      "allow": 3003,
      "ometimes": 3004,
      "ches": 3005,
      "ousand": 3006,
      "anything": 3007,
      "comes": 3008,
      "tempt": 3009,
      "gover": 3010,
      "prob": 3011,
      "De": 3012,
      "amp": 3013,
      "ief": 3014,
      "brought": 3015,
      "stri": 3016,
      "thousand": 3017,
      "become": 3018,
      "brother": 3019,
      "question": 3020,
      "manner": 3021,
      "ese": 3022,
      "move": 3023,
      "pend": 3024,
      "import": 3025,
      "adm": 3026,
      "says": 3027,
      "believe": 3028,
      "why": 3029,
      "gre": 3030,
      "12": 3031,
      "ken": 3032,
      "wal": 3033,
      "regard": 3034,
      "gg": 3035,
      "wer": 3036,
      "rap": 3037,
      "ality": 3038,
      "pret": 3039,
      "speci": 3040,
      "sho": 3041,
      "flu": 3042,
      "org": 3043,
      "uring": 3044,
      "perfect": 3045,
      "roy": 3046,
      "laws": 3047,
      "itude": 3048,
      "Al": 3049,
      "By": 3050,
      "fear": 3051,
      "wife": 3052,
      "laugh": 3053,
      "large": 3054,
      "experi": 3055,
      "knew": 3056,
      "forth": 3057,
      "inct": 3058,
      "En": 3059,
      "sea": 3060,
      "15": 3061,
      "spirit": 3062,
      "sle": 3063,
      "Mrs": 3064,
      "expect": 3065,
      "16": 3066,
      "arms": 3067,
      "fur": 3068,
      "sign": 3069,
      "ons": 3070,
      "orig": 3071,
      "Mo": 3072,
      "incl": 3073,
      "ster": 3074,
      "sort": 3075,
      "seems": 3076,
      "clear": 3077,
      "ceive": 3078,
      "fortun": 3079,
      "tre": 3080,
      "Gutenberg™": 3081,
      "iled": 3082,
      "greater": 3083,
      "CH": 3084,
      "ples": 3085,
      "origin": 3086,
      "EN": 3087,
      "towards": 3088,
      "book": 3089,
      "difficul": 3090,
      "parts": 3091,
      "appro": 3092,
      "gy": 3093,
      "13": 3094,
      "character": 3095,
      "pi": 3096,
      "gent": 3097,
      "ries": 3098,
      "Re": 3099,
      "creat": 3100,
      "town": 3101,
      "several": 3102,
      "IN": 3103,
      "hy": 3104,
      "mount": 3105,
      "blood": 3106,
      "knowledge": 3107,
      "ones": 3108,
      "bur": 3109,
      "door": 3110,
      "itted": 3111,
      "opin": 3112,
      "iting": 3113,
      "band": 3114,
      "bey": 3115,
      "herself": 3116,
      "anci": 3117,
      "run": 3118,
      "necessary": 3119,
      "chief": 3120,
      "sometimes": 3121,
      "ling": 3122,
      "money": 3123,
      "short": 3124,
      "Her": 3125,
      "public": 3126,
      "ched": 3127,
      "gn": 3128,
      "From": 3129,
      "lady": 3130,
      "cove": 3131,
      "ather": 3132,
      "doubt": 3133,
      "miss": 3134,
      "Why": 3135,
      "cell": 3136,
      "ods": 3137,
      "sed": 3138,
      "ils": 3139,
      "laim": 3140,
      "help": 3141,
      "Is": 3142,
      "van": 3143,
      "formed": 3144,
      "conscious": 3145,
      "virt": 3146,
      "consequ": 3147,
      "else": 3148,
      "fre": 3149,
      "ature": 3150,
      "Let": 3151,
      "ronic": 3152,
      "former": 3153,
      "deter": 3154,
      "loso": 3155,
      "pal": 3156,
      "Do": 3157,
      "ont": 3158,
      "author": 3159,
      "dark": 3160,
      "ON": 3161,
      "hind": 3162,
      "note": 3163,
      "sis": 3164,
      "ordin": 3165,
      "14": 3166,
      "alt": 3167,
      "white": 3168,
      "Qu": 3169,
      "swe": 3170,
      "met": 3171,
      "See": 3172,
      "line": 3173,
      "inv": 3174,
      "lex": 3175,
      "gold": 3176,
      "really": 3177,
      "phi": 3178,
      "master": 3179,
      "begin": 3180,
      "Go": 3181,
      "enter": 3182,
      "faith": 3183,
      "loy": 3184,
      "nam": 3185,
      "terms": 3186,
      "mid": 3187,
      "command": 3188,
      "tained": 3189,
      "sens": 3190,
      "imag": 3191,
      "change": 3192,
      "ban": 3193,
      "19": 3194,
      "immedi": 3195,
      "lab": 3196,
      "children": 3197,
      "acqu": 3198,
      "tered": 3199,
      "turned": 3200,
      "rup": 3201,
      "vic": 3202,
      "reach": 3203,
      "These": 3204,
      "heaven": 3205,
      "idea": 3206,
      "next": 3207,
      "uni": 3208,
      "electronic": 3209,
      "Nor": 3210,
      "fav": 3211,
      "bring": 3212,
      "occas": 3213,
      "fire": 3214,
      "lead": 3215,
      "circum": 3216,
      "distribut": 3217,
      "Or": 3218,
      "descri": 3219,
      "ception": 3220,
      "Gree": 3221,
      "sound": 3222,
      "ually": 3223,
      "pa": 3224,
      "ains": 3225,
      "pay": 3226,
      "relig": 3227,
      "plan": 3228,
      "represent": 3229,
      "Pe": 3230,
      "covered": 3231,
      "along": 3232,
      "chang": 3233,
      "remem": 3234,
      "leave": 3235,
      "cup": 3236,
      "coming": 3237,
      "ug": 3238,
      "oun": 3239,
      "tend": 3240,
      "rious": 3241,
      "meet": 3242,
      "poor": 3243,
      "voice": 3244,
      "six": 3245,
      "Don": 3246,
      "agre": 3247,
      "ention": 3248,
      "pet": 3249,
      "Pl": 3250,
      "spr": 3251,
      "hope": 3252,
      "har": 3253,
      "Ne": 3254,
      "everything": 3255,
      "Sp": 3256,
      "arent": 3257,
      "feeling": 3258,
      "answer": 3259,
      "ths": 3260,
      "ili": 3261,
      "looking": 3262,
      "sem": 3263,
      "mist": 3264,
      "portion": 3265,
      "Le": 3266,
      "ris": 3267,
      "gir": 3268,
      "field": 3269,
      "received": 3270,
      "Thus": 3271,
      "prince": 3272,
      "OR": 3273,
      "remar": 3274,
      "neither": 3275,
      "direct": 3276,
      "ination": 3277,
      "cul": 3278,
      "cut": 3279,
      "bly": 3280,
      "feet": 3281,
      "aged": 3282,
      "philoso": 3283,
      "sac": 3284,
      "sight": 3285,
      "dream": 3286,
      "close": 3287,
      "dro": 3288,
      "habit": 3289,
      "ivid": 3290,
      "Po": 3291,
      "list": 3292,
      "held": 3293,
      "ich": 3294,
      "dev": 3295,
      "Af": 3296,
      "io": 3297,
      "pped": 3298,
      "longer": 3299,
      "bear": 3300,
      "hus": 3301,
      "eye": 3302,
      "ending": 3303,
      "mine": 3304,
      "offic": 3305,
      "idence": 3306,
      "Well": 3307,
      "draw": 3308,
      "urch": 3309,
      "concer": 3310,
      "lost": 3311,
      "pat": 3312,
      "Ro": 3313,
      "deep": 3314,
      "employ": 3315,
      "peror": 3316,
      "bound": 3317,
      "illed": 3318,
      "uc": 3319,
      "suffic": 3320,
      "morning": 3321,
      "family": 3322,
      "dem": 3323,
      "OF": 3324,
      "saying": 3325,
      "treat": 3326,
      "attle": 3327,
      "angu": 3328,
      "sor": 3329,
      "pen": 3330,
      "gain": 3331,
      "Yes": 3332,
      "gone": 3333,
      "road": 3334,
      "liber": 3335,
      "atic": 3336,
      "tra": 3337,
      "iment": 3338,
      "ured": 3339,
      "aris": 3340,
      "Ex": 3341,
      "Com": 3342,
      "five": 3343,
      "meas": 3344,
      "suddenly": 3345,
      "One": 3346,
      "passed": 3347,
      "making": 3348,
      "ES": 3349,
      "stem": 3350,
      "satis": 3351,
      "equal": 3352,
      "usu": 3353,
      "stit": 3354,
      "result": 3355,
      "stren": 3356,
      "Found": 3357,
      "black": 3358,
      "augh": 3359,
      "alth": 3360,
      "dear": 3361,
      "govern": 3362,
      "aint": 3363,
      "post": 3364,
      "rown": 3365,
      "ame": 3366,
      "dead": 3367,
      "fix": 3368,
      "Alex": 3369,
      "cover": 3370,
      "por": 3371,
      "cried": 3372,
      "Who": 3373,
      "condition": 3374,
      "advant": 3375,
      "women": 3376,
      "firm": 3377,
      "Oh": 3378,
      "replied": 3379,
      "After": 3380,
      "Engl": 3381,
      "gentle": 3382,
      "makes": 3383,
      "experience": 3384,
      "stud": 3385,
      "gar": 3386,
      "hast": 3387,
      "iful": 3388,
      "army": 3389,
      "pract": 3390,
      "enemy": 3391,
      "20": 3392,
      "Foundation": 3393,
      "wall": 3394,
      "happy": 3395,
      "stances": 3396,
      "ury": 3397,
      "usion": 3398,
      "sold": 3399,
      "ery": 3400,
      "ann": 3401,
      "Ho": 3402,
      "dered": 3403,
      "arr": 3404,
      "streng": 3405,
      "outh": 3406,
      "foot": 3407,
      "pleasure": 3408,
      "mus": 3409,
      "mention": 3410,
      "step": 3411,
      "hath": 3412,
      "ences": 3413,
      "cience": 3414,
      "ats": 3415,
      "Ts": 3416,
      "fac": 3417,
      "daugh": 3418,
      "ows": 3419,
      "complete": 3420,
      "Where": 3421,
      "wered": 3422,
      "arri": 3423,
      "Eu": 3424,
      "opinion": 3425,
      "ket": 3426,
      "reign": 3427,
      "during": 3428,
      "judg": 3429,
      "friends": 3430,
      "bad": 3431,
      "ends": 3432,
      "cold": 3433,
      "danger": 3434,
      "latter": 3435,
      "husband": 3436,
      "ger": 3437,
      "ert": 3438,
      "cked": 3439,
      "pie": 3440,
      "motion": 3441,
      "pol": 3442,
      "comb": 3443,
      "occasion": 3444,
      "separ": 3445,
      "ires": 3446,
      "ized": 3447,
      "Not": 3448,
      "vari": 3449,
      "ified": 3450,
      "tro": 3451,
      "lying": 3452,
      "pon": 3453,
      "determin": 3454,
      "pure": 3455,
      "further": 3456,
      "individ": 3457,
      "Roman": 3458,
      "moder": 3459,
      "ists": 3460,
      "peace": 3461,
      "dri": 3462,
      "bers": 3463,
      "behind": 3464,
      "purpose": 3465,
      "rid": 3466,
      "iously": 3467,
      "Lord": 3468,
      "solute": 3469,
      "ration": 3470,
      "horse": 3471,
      "secret": 3472,
      "ener": 3473,
      "decl": 3474,
      "past": 3475,
      "wonder": 3476,
      "ime": 3477,
      "trou": 3478,
      "peci": 3479,
      "leng": 3480,
      "RE": 3481,
      "fell": 3482,
      "verse": 3483,
      "explain": 3484,
      "trad": 3485,
      "concl": 3486,
      "individual": 3487,
      "Sh": 3488,
      "uous": 3489,
      "atever": 3490,
      "simp": 3491,
      "tors": 3492,
      "inf": 3493,
      "Thou": 3494,
      "distance": 3495,
      "weak": 3496,
      "suffer": 3497,
      "proceed": 3498,
      "hum": 3499,
      "25": 3500,
      "system": 3501,
      "itting": 3502,
      "ying": 3503,
      "pray": 3504,
      "owers": 3505,
      "bird": 3506,
      "cogn": 3507,
      "States": 3508,
      "qui": 3509,
      "Fo": 3510,
      "sleep": 3511,
      "ancient": 3512,
      "ax": 3513,
      "ics": 3514,
      "desire": 3515,
      "dut": 3516,
      "species": 3517,
      "ered": 3518,
      "ordinary": 3519,
      "tle": 3520,
      "ingu": 3521,
      "except": 3522,
      "cases": 3523,
      "AP": 3524,
      "strange": 3525,
      "agree": 3526,
      "entire": 3527,
      "space": 3528,
      "fig": 3529,
      "ped": 3530,
      "abl": 3531,
      "following": 3532,
      "support": 3533,
      "sl": 3534,
      "cks": 3535,
      "taking": 3536,
      "lea": 3537,
      "rench": 3538,
      "forms": 3539,
      "Arch": 3540,
      "AR": 3541,
      "deg": 3542,
      "Miss": 3543,
      "unity": 3544,
      "evil": 3545,
      "non": 3546,
      "err": 3547,
      "cre": 3548,
      "table": 3549,
      "hur": 3550,
      "Am": 3551,
      "sla": 3552,
      "tou": 3553,
      "lled": 3554,
      "prote": 3555,
      "bs": 3556,
      "ital": 3557,
      "LI": 3558,
      "Yet": 3559,
      "strength": 3560,
      "beyond": 3561,
      "test": 3562,
      "wel": 3563,
      "influ": 3564,
      "attack": 3565,
      "az": 3566,
      "contrary": 3567,
      "uses": 3568,
      "Me": 3569,
      "belong": 3570,
      "anc": 3571,
      "answered": 3572,
      "bri": 3573,
      "easily": 3574,
      "certainly": 3575,
      "claim": 3576,
      "Some": 3577,
      "became": 3578,
      "cast": 3579,
      "until": 3580,
      "living": 3581,
      "conne": 3582,
      "especi": 3583,
      "cross": 3584,
      "rit": 3585,
      "twent": 3586,
      "repe": 3587,
      "kept": 3588,
      "23": 3589,
      "spect": 3590,
      "class": 3591,
      "oft": 3592,
      "single": 3593,
      "length": 3594,
      "phys": 3595,
      "flo": 3596,
      "ues": 3597,
      "ience": 3598,
      "break": 3599,
      "third": 3600,
      "moved": 3601,
      "simple": 3602,
      "fast": 3603,
      "grace": 3604,
      "business": 3605,
      "quar": 3606,
      "ben": 3607,
      "iling": 3608,
      "ff": 3609,
      "desp": 3610,
      "ternal": 3611,
      "rope": 3612,
      "Yü": 3613,
      "quick": 3614,
      "frequ": 3615,
      "fut": 3616,
      "phy": 3617,
      "mal": 3618,
      "appears": 3619,
      "immediately": 3620,
      "ained": 3621,
      "ively": 3622,
      "condu": 3623,
      "sin": 3624,
      "super": 3625,
      "Tr": 3626,
      "difficult": 3627,
      "easy": 3628,
      "tic": 3629,
      "observed": 3630,
      "dle": 3631,
      "Here": 3632,
      "phen": 3633,
      "persons": 3634,
      "probably": 3635,
      "ator": 3636,
      "ric": 3637,
      "appeared": 3638,
      "path": 3639,
      "standing": 3640,
      "lu": 3641,
      "ctions": 3642,
      "mission": 3643,
      "especially": 3644,
      "24": 3645,
      "inqu": 3646,
      "important": 3647,
      "agreement": 3648,
      "acy": 3649,
      "langu": 3650,
      "carry": 3651,
      "velo": 3652,
      "formation": 3653,
      "sky": 3654,
      "fellow": 3655,
      "none": 3656,
      "mur": 3657,
      "various": 3658,
      "society": 3659,
      "twenty": 3660,
      "hour": 3661,
      "Christian": 3662,
      "bility": 3663,
      "ina": 3664,
      "rich": 3665,
      "viol": 3666,
      "tract": 3667,
      "Per": 3668,
      "degree": 3669,
      "finite": 3670,
      "approach": 3671,
      "IS": 3672,
      "fif": 3673,
      "fal": 3674,
      "stra": 3675,
      "XX": 3676,
      "river": 3677,
      "ec": 3678,
      "Mar": 3679,
      "battle": 3680,
      "sym": 3681,
      "watch": 3682,
      "wild": 3683,
      "ption": 3684,
      "compan": 3685,
      "ency": 3686,
      "start": 3687,
      "daughter": 3688,
      "merely": 3689,
      "existence": 3690,
      "yü": 3691,
      "wood": 3692,
      "temper": 3693,
      "sal": 3694,
      "ni": 3695,
      "ony": 3696,
      "trust": 3697,
      "honour": 3698,
      "copyright": 3699,
      "Tsʻ": 3700,
      "King": 3701,
      "letter": 3702,
      "ilar": 3703,
      "phenomen": 3704,
      "TI": 3705,
      "organ": 3706,
      "host": 3707,
      "accept": 3708,
      "ability": 3709,
      "ah": 3710,
      "mort": 3711,
      "ote": 3712,
      "generally": 3713,
      "ank": 3714,
      "imin": 3715,
      "neigh": 3716,
      "French": 3717,
      "ops": 3718,
      "pher": 3719,
      "produce": 3720,
      "future": 3721,
      "11": 3722,
      "itation": 3723,
      "phe": 3724,
      "ison": 3725,
      "assu": 3726,
      "absolute": 3727,
      "thir": 3728,
      "advantage": 3729,
      "suppose": 3730,
      "evening": 3731,
      "ards": 3732,
      "ourselves": 3733,
      "objects": 3734,
      "Ger": 3735,
      "government": 3736,
      "fine": 3737,
      "stance": 3738,
      "placed": 3739,
      "nation": 3740,
      "prove": 3741,
      "vel": 3742,
      "depend": 3743,
      "Em": 3744,
      "dress": 3745,
      "fortune": 3746,
      "ring": 3747,
      "court": 3748,
      "Rome": 3749,
      "ancho": 3750,
      "memor": 3751,
      "sole": 3752,
      "virtue": 3753,
      "surpr": 3754,
      "whatever": 3755,
      "CHAP": 3756,
      "cry": 3757,
      "ded": 3758,
      "ets": 3759,
      "unto": 3760,
      "afterwards": 3761,
      "talk": 3762,
      "dam": 3763,
      "oh": 3764,
      "enjoy": 3765,
      "exer": 3766,
      "prev": 3767,
      "remember": 3768,
      "associ": 3769,
      "lection": 3770,
      "Amer": 3771,
      "scar": 3772,
      "example": 3773,
      "added": 3774,
      "ancy": 3775,
      "delight": 3776,
      "ament": 3777,
      "carried": 3778,
      "cise": 3779,
      "ingly": 3780,
      "attention": 3781,
      "Lo": 3782,
      "Book": 3783,
      "riage": 3784,
      "olog": 3785,
      "itten": 3786,
      "beautiful": 3787,
      "27": 3788,
      "TER": 3789,
      "26": 3790,
      "priv": 3791,
      "establ": 3792,
      "Americ": 3793,
      "ased": 3794,
      "seeing": 3795,
      "inner": 3796,
      "ses": 3797,
      "history": 3798,
      "idered": 3799,
      "affect": 3800,
      "28": 3801,
      "occup": 3802,
      "justice": 3803,
      "although": 3804,
      "impress": 3805,
      "III": 3806,
      "exact": 3807,
      "preh": 3808,
      "surface": 3809,
      "distinct": 3810,
      "Cha": 3811,
      "ns": 3812,
      "pun": 3813,
      "impossible": 3814,
      "aring": 3815,
      "30": 3816,
      "ilt": 3817,
      "Will": 3818,
      "lands": 3819,
      "Alexand": 3820,
      "charge": 3821,
      "hair": 3822,
      "grad": 3823,
      "distingu": 3824,
      "worth": 3825,
      "ays": 3826,
      "principle": 3827,
      "Europe": 3828,
      "ago": 3829,
      "ignor": 3830,
      "laid": 3831,
      "bles": 3832,
      "Pao": 3833,
      "company": 3834,
      "pursu": 3835,
      "sw": 3836,
      "ught": 3837,
      "relation": 3838,
      "Ju": 3839,
      "fection": 3840,
      "gro": 3841,
      "acc": 3842,
      "doing": 3843,
      "ites": 3844,
      "arily": 3845,
      "ously": 3846,
      "bled": 3847,
      "difference": 3848,
      "girl": 3849,
      "contain": 3850,
      "Constant": 3851,
      "anced": 3852,
      "continued": 3853,
      "Ind": 3854,
      "Such": 3855,
      "United": 3856,
      "attempt": 3857,
      "pan": 3858,
      "iers": 3859,
      "ining": 3860,
      "thoughts": 3861,
      "similar": 3862,
      "quant": 3863,
      "prep": 3864,
      "race": 3865,
      "Tsʻao": 3866,
      "itary": 3867,
      "ley": 3868,
      "liar": 3869,
      "Man": 3870,
      "pra": 3871,
      "ler": 3872,
      "bodies": 3873,
      "circumstances": 3874,
      "teach": 3875,
      "worthy": 3876,
      "beauty": 3877,
      "lord": 3878,
      "aly": 3879,
      "arrow": 3880,
      "hero": 3881,
      "simply": 3882,
      "convers": 3883,
      "late": 3884,
      "die": 3885,
      "fle": 3886,
      "access": 3887,
      "proportion": 3888,
      "gri": 3889,
      "oblig": 3890,
      "sweet": 3891,
      "tis": 3892,
      "ady": 3893,
      "mit": 3894,
      "bid": 3895,
      "deal": 3896,
      "period": 3897,
      "animals": 3898,
      "born": 3899,
      "ges": 3900,
      "terri": 3901,
      "unless": 3902,
      "passion": 3903,
      "authority": 3904,
      "fee": 3905,
      "yourself": 3906,
      "happened": 3907,
      "places": 3908,
      "observ": 3909,
      "ishment": 3910,
      "destroy": 3911,
      "eds": 3912,
      "story": 3913,
      "sufficient": 3914,
      "oured": 3915,
      "shi": 3916,
      "understanding": 3917,
      "influence": 3918,
      "ead": 3919,
      "service": 3920,
      "lected": 3921,
      "mut": 3922,
      "ference": 3923,
      "lly": 3924,
      "front": 3925,
      "religion": 3926,
      "gate": 3927,
      "occur": 3928,
      "hood": 3929,
      "instance": 3930,
      "drink": 3931,
      "produced": 3932,
      "paid": 3933,
      "deser": 3934,
      "teen": 3935,
      "emperor": 3936,
      "pu": 3937,
      "tori": 3938,
      "considered": 3939,
      "maid": 3940,
      "mouth": 3941,
      "exper": 3942,
      "tax": 3943,
      "Col": 3944,
      "instead": 3945,
      "beginning": 3946,
      "greatest": 3947,
      "uded": 3948,
      "thinking": 3949,
      "Their": 3950,
      "stay": 3951,
      "culiar": 3952,
      "crow": 3953,
      "ere": 3954,
      "iving": 3955,
      "gives": 3956,
      "nder": 3957,
      "youth": 3958,
      "eight": 3959,
      "peculiar": 3960,
      "minis": 3961,
      "bra": 3962,
      "mem": 3963,
      "smo": 3964,
      "amb": 3965,
      "wit": 3966,
      "miles": 3967,
      "ices": 3968,
      "Sir": 3969,
      "desc": 3970,
      "preser": 3971,
      "ai": 3972,
      "bow": 3973,
      "value": 3974,
      "content": 3975,
      "cture": 3976,
      "ww": 3977,
      "meth": 3978,
      "cles": 3979,
      "hill": 3980,
      "arg": 3981,
      "Prince": 3982,
      "written": 3983,
      "fered": 3984,
      "resol": 3985,
      "eth": 3986,
      "appearance": 3987,
      "ises": 3988,
      "fool": 3989,
      "Athen": 3990,
      "ggest": 3991,
      "iii": 3992,
      "dog": 3993,
      "ideas": 3994,
      "oper": 3995,
      "loss": 3996,
      "possi": 3997,
      "ior": 3998,
      "wis": 3999,
      "below": 4000,
      "safe": 4001,
      "yes": 4002,
      "suggest": 4003,
      "vil": 4004,
      "boy": 4005,
      "loved": 4006,
      "LE": 4007,
      "returned": 4008,
      "glad": 4009,
      "followed": 4010,
      "consciousness": 4011,
      "false": 4012,
      "ensive": 4013,
      "wanted": 4014,
      "expected": 4015,
      "wrong": 4016,
      "mass": 4017,
      "ox": 4018,
      "chool": 4019,
      "vain": 4020,
      "eness": 4021,
      "supposed": 4022,
      "pond": 4023,
      "lame": 4024,
      "nearly": 4025,
      "ision": 4026,
      "presence": 4027,
      "mater": 4028,
      "aste": 4029,
      "ail": 4030,
      "oppos": 4031,
      "situ": 4032,
      "ager": 4033,
      "fun": 4034,
      "seven": 4035,
      "ize": 4036,
      "fat": 4037,
      "Foot": 4038,
      "extreme": 4039,
      "rul": 4040,
      "vill": 4041,
      "constant": 4042,
      "favour": 4043,
      "gress": 4044,
      "bright": 4045,
      "lot": 4046,
      "obtain": 4047,
      "meaning": 4048,
      "ium": 4049,
      "mad": 4050,
      "sister": 4051,
      "increas": 4052,
      "ening": 4053,
      "process": 4054,
      "nal": 4055,
      "bot": 4056,
      "heat": 4057,
      "slight": 4058,
      "Ste": 4059,
      "itable": 4060,
      "paper": 4061,
      "changed": 4062,
      "ument": 4063,
      "receive": 4064,
      "knows": 4065,
      "Im": 4066,
      "constit": 4067,
      "lines": 4068,
      "utter": 4069,
      "weight": 4070,
      "spring": 4071,
      "confess": 4072,
      "fixed": 4073,
      "quiet": 4074,
      "squ": 4075,
      "iterary": 4076,
      "speaking": 4077,
      "fight": 4078,
      "resist": 4079,
      "oth": 4080,
      "language": 4081,
      "29": 4082,
      "burn": 4083,
      "seas": 4084,
      "Ac": 4085,
      "NO": 4086,
      "itive": 4087,
      "ically": 4088,
      "sacri": 4089,
      "eat": 4090,
      "early": 4091,
      "AL": 4092,
      "lived": 4093,
      "bell": 4094,
      "affair": 4095,
      "takes": 4096,
      "bon": 4097,
      "numer": 4098,
      "OU": 4099,
      "stone": 4100,
      "llect": 4101,
      "remark": 4102,
      "wound": 4103,
      "heav": 4104,
      "mir": 4105,
      "reve": 4106,
      "green": 4107,
      "camp": 4108,
      "pul": 4109,
      "wine": 4110,
      "hardly": 4111,
      "Greek": 4112,
      "fish": 4113,
      "manif": 4114,
      "mult": 4115,
      "ify": 4116,
      "lief": 4117,
      "capable": 4118,
      "New": 4119,
      "warm": 4120,
      "silver": 4121,
      "expression": 4122,
      "Gr": 4123,
      "tears": 4124,
      "middle": 4125,
      "Footnote": 4126,
      "property": 4127,
      "grand": 4128,
      "gard": 4129,
      "forward": 4130,
      "ctor": 4131,
      "35": 4132,
      "34": 4133,
      "regular": 4134,
      "ners": 4135,
      "freed": 4136,
      "direction": 4137,
      "modern": 4138,
      "colour": 4139,
      "measure": 4140,
      "TE": 4141,
      "pot": 4142,
      "Just": 4143,
      "parag": 4144,
      "learned": 4145,
      "trees": 4146,
      "chance": 4147,
      "rodu": 4148,
      "ton": 4149,
      "cru": 4150,
      "avo": 4151,
      "neg": 4152,
      "school": 4153,
      "superi": 4154,
      "design": 4155,
      "original": 4156,
      "usual": 4157,
      "entirely": 4158,
      "parent": 4159,
      "ny": 4160,
      "around": 4161,
      "instant": 4162,
      "Ly": 4163,
      "iments": 4164,
      "drawn": 4165,
      "ney": 4166,
      "consist": 4167,
      "address": 4168,
      "tellig": 4169,
      "dread": 4170,
      "satisf": 4171,
      "conduct": 4172,
      "rupt": 4173,
      "Ant": 4174,
      "mentioned": 4175,
      "later": 4176,
      "rise": 4177,
      "Car": 4178,
      "ising": 4179,
      "Thy": 4180,
      "party": 4181,
      "considerable": 4182,
      "SE": 4183,
      "glass": 4184,
      "Every": 4185,
      "smile": 4186,
      "spoke": 4187,
      "church": 4188,
      "conditions": 4189,
      "due": 4190,
      "Chia": 4191,
      "rate": 4192,
      "filled": 4193,
      "rose": 4194,
      "succeed": 4195,
      "iding": 4196,
      "using": 4197,
      "please": 4198,
      "private": 4199,
      "ushed": 4200,
      "fru": 4201,
      "intellect": 4202,
      "aries": 4203,
      "passage": 4204,
      "raph": 4205,
      "trouble": 4206,
      "display": 4207,
      "cts": 4208,
      "straight": 4209,
      "recogn": 4210,
      "becomes": 4211,
      "fing": 4212,
      "noble": 4213,
      "giving": 4214,
      "tha": 4215,
      "scarce": 4216,
      "stre": 4217,
      "fit": 4218,
      "slow": 4219,
      "excell": 4220,
      "paragraph": 4221,
      "ali": 4222,
      "cloud": 4223,
      "allowed": 4224,
      "happiness": 4225,
      "guard": 4226,
      "36": 4227,
      "hab": 4228,
      "seek": 4229,
      "introdu": 4230,
      "susp": 4231,
      "cit": 4232,
      "understood": 4233,
      "pressed": 4234,
      "wed": 4235,
      "ovitch": 4236,
      "ension": 4237,
      "bir": 4238,
      "depart": 4239,
      "intellig": 4240,
      "stro": 4241,
      "touch": 4242,
      "fles": 4243,
      "food": 4244,
      "actions": 4245,
      "Co": 4246,
      "science": 4247,
      "CHAPTER": 4248,
      "material": 4249,
      "gods": 4250,
      "states": 4251,
      "dy": 4252,
      "superior": 4253,
      "commun": 4254,
      "quantity": 4255,
      "tree": 4256,
      "psy": 4257,
      "ech": 4258,
      "Rus": 4259,
      "moon": 4260,
      "duty": 4261,
      "reven": 4262,
      "cost": 4263,
      "higher": 4264,
      "remains": 4265,
      "mix": 4266,
      "poet": 4267,
      "Mary": 4268,
      "bling": 4269,
      "ging": 4270,
      "ror": 4271,
      "uncle": 4272,
      "ests": 4273,
      "fraid": 4274,
      "prevent": 4275,
      "demand": 4276,
      "require": 4277,
      "besides": 4278,
      "reached": 4279,
      "meant": 4280,
      "empire": 4281,
      "principles": 4282,
      "afraid": 4283,
      "trave": 4284,
      "anted": 4285,
      "xx": 4286,
      "ek": 4287,
      "jour": 4288,
      "anx": 4289,
      "tried": 4290,
      "pleasant": 4291,
      "points": 4292,
      "wide": 4293,
      "rov": 4294,
      "neighb": 4295,
      "chan": 4296,
      "Our": 4297,
      "Bar": 4298,
      "uding": 4299,
      "Pers": 4300,
      "je": 4301,
      "capital": 4302,
      "emark": 4303,
      "Literary": 4304,
      "learn": 4305,
      "stream": 4306,
      "rule": 4307,
      "raised": 4308,
      "liz": 4309,
      "ford": 4310,
      "blue": 4311,
      "Ab": 4312,
      "ctr": 4313,
      "aded": 4314,
      "vation": 4315,
      "chap": 4316,
      "search": 4317,
      "rer": 4318,
      "aled": 4319,
      "wealth": 4320,
      "ba": 4321,
      "eBook": 4322,
      "arer": 4323,
      "trademark": 4324,
      "Archive": 4325,
      "causes": 4326,
      "soldiers": 4327,
      "moral": 4328,
      "Pier": 4329,
      "inj": 4330,
      "Mad": 4331,
      "owing": 4332,
      "pointed": 4333,
      "piece": 4334,
      "mn": 4335,
      "Sy": 4336,
      "opposite": 4337,
      "animal": 4338,
      "polit": 4339,
      "thick": 4340,
      "proof": 4341,
      "conce": 4342,
      "etc": 4343,
      "ae": 4344,
      "inhabit": 4345,
      "furn": 4346,
      "Sancho": 4347,
      "entered": 4348,
      "aph": 4349,
      "bold": 4350,
      "Quix": 4351,
      "perfectly": 4352,
      "difficulty": 4353,
      "hop": 4354,
      "drew": 4355,
      "sit": 4356,
      "discovered": 4357,
      "getting": 4358,
      "god": 4359,
      "forces": 4360,
      "ishing": 4361,
      "rapid": 4362,
      "remained": 4363,
      "cult": 4364,
      "feelings": 4365,
      "aught": 4366,
      "revol": 4367,
      "cape": 4368,
      "While": 4369,
      "offer": 4370,
      "kes": 4371,
      "male": 4372,
      "Quixote": 4373,
      "gin": 4374,
      "utes": 4375,
      "lives": 4376,
      "English": 4377,
      "lest": 4378,
      "notice": 4379,
      "sake": 4380,
      "bran": 4381,
      "freedom": 4382,
      "tit": 4383,
      "qual": 4384,
      "memory": 4385,
      "judgment": 4386,
      "spread": 4387,
      "labour": 4388,
      "Sun": 4389,
      "deriv": 4390,
      "ease": 4391,
      "fined": 4392,
      "sick": 4393,
      "necessity": 4394,
      "univers": 4395,
      "image": 4396,
      "conception": 4397,
      "respond": 4398,
      "employed": 4399,
      "steps": 4400,
      "hors": 4401,
      "sir": 4402,
      "benef": 4403,
      "lips": 4404,
      "gry": 4405,
      "build": 4406,
      "otherwise": 4407,
      "facts": 4408,
      "empt": 4409,
      "22": 4410,
      "proved": 4411,
      "37": 4412,
      "ming": 4413,
      "books": 4414,
      "sides": 4415,
      "shad": 4416,
      "Nat": 4417,
      "broken": 4418,
      "throw": 4419,
      "trem": 4420,
      "educ": 4421,
      "glory": 4422,
      "39": 4423,
      "Father": 4424,
      "top": 4425,
      "bal": 4426,
      "frequently": 4427,
      "independ": 4428,
      "bless": 4429,
      "price": 4430,
      "magn": 4431,
      "Ph": 4432,
      "aul": 4433,
      "adi": 4434,
      "consequently": 4435,
      "cand": 4436,
      "determined": 4437,
      "relations": 4438,
      "Hsi": 4439,
      "uced": 4440,
      "ships": 4441,
      "names": 4442,
      "fresh": 4443,
      "courage": 4444,
      "donations": 4445,
      "orders": 4446,
      "rease": 4447,
      "ferred": 4448,
      "000": 4449,
      "Cor": 4450,
      "distant": 4451,
      "walked": 4452,
      "Pierre": 4453,
      "mach": 4454,
      "consequence": 4455,
      "40": 4456,
      "38": 4457,
      "sitting": 4458,
      "alter": 4459,
      "vessel": 4460,
      "nations": 4461,
      "iron": 4462,
      "assist": 4463,
      "Joh": 4464,
      "develo": 4465,
      "prison": 4466,
      "horses": 4467,
      "compl": 4468,
      "Lu": 4469,
      "height": 4470,
      "opened": 4471,
      "lack": 4472,
      "net": 4473,
      "goes": 4474,
      "possession": 4475,
      "discover": 4476,
      "died": 4477,
      "spl": 4478,
      "theory": 4479,
      "silence": 4480,
      "ames": 4481,
      "ende": 4482,
      "troops": 4483,
      "Heaven": 4484,
      "send": 4485,
      "acts": 4486,
      "IV": 4487,
      "comfort": 4488,
      "grat": 4489,
      "Ivan": 4490,
      "shout": 4491,
      "visit": 4492,
      "Russi": 4493,
      "vig": 4494,
      "sorrow": 4495,
      "blind": 4496,
      "lower": 4497,
      "apt": 4498,
      "naturally": 4499,
      "ell": 4500,
      "birds": 4501,
      "anal": 4502,
      "England": 4503,
      "sword": 4504,
      "fill": 4505,
      "nest": 4506,
      "subjects": 4507,
      "iny": 4508,
      "pers": 4509,
      "foreign": 4510,
      "struck": 4511,
      "crit": 4512,
      "CT": 4513,
      "John": 4514,
      "described": 4515,
      "lling": 4516,
      "outside": 4517,
      "window": 4518,
      "iced": 4519,
      "maj": 4520,
      "aff": 4521,
      "writing": 4522,
      "Rom": 4523,
      "ude": 4524,
      "da": 4525,
      "divine": 4526,
      "tong": 4527,
      "soft": 4528,
      "mitted": 4529,
      "judge": 4530,
      "Nature": 4531,
      "servant": 4532,
      "cred": 4533,
      "report": 4534,
      "visible": 4535,
      "conversation": 4536,
      "movement": 4537,
      "maintain": 4538,
      "ification": 4539,
      "bas": 4540,
      "alle": 4541,
      "ib": 4542,
      "doctr": 4543,
      "honor": 4544,
      "pleased": 4545,
      "Him": 4546,
      "conv": 4547,
      "somewhat": 4548,
      "Can": 4549,
      "opport": 4550,
      "walk": 4551,
      "profess": 4552,
      "birth": 4553,
      "Aug": 4554,
      "prim": 4555,
      "arts": 4556,
      "kill": 4557,
      "minute": 4558,
      "didn": 4559,
      "follows": 4560,
      "sex": 4561,
      "forgot": 4562,
      "mas": 4563,
      "conven": 4564,
      "Dr": 4565,
      "winter": 4566,
      "lov": 4567,
      "arrang": 4568,
      "phenomena": 4569,
      "Even": 4570,
      "likely": 4571,
      "passing": 4572,
      "Lev": 4573,
      "write": 4574,
      "sty": 4575,
      "thes": 4576,
      "study": 4577,
      "Your": 4578,
      "island": 4579,
      "fice": 4580,
      "hat": 4581,
      "manifest": 4582,
      "uments": 4583,
      "instinct": 4584,
      "concerning": 4585,
      "retched": 4586,
      "Lat": 4587,
      "gif": 4588,
      "persu": 4589,
      "distur": 4590,
      "shame": 4591,
      "effects": 4592,
      "Church": 4593,
      "kingdom": 4594,
      "physical": 4595,
      "marriage": 4596,
      "leaves": 4597,
      "philosopher": 4598,
      "minds": 4599,
      "bread": 4600,
      "corn": 4601,
      "atus": 4602,
      "apparent": 4603,
      "silent": 4604,
      "powers": 4605,
      "gypt": 4606,
      "Spir": 4607,
      "Ill": 4608,
      "quickly": 4609,
      "worship": 4610,
      "mountains": 4611,
      "rough": 4612,
      "sion": 4613,
      "summer": 4614,
      "spot": 4615,
      "Fig": 4616,
      "reality": 4617,
      "German": 4618,
      "50": 4619,
      "hours": 4620,
      "curious": 4621,
      "chair": 4622,
      "turning": 4623,
      "altogether": 4624,
      "ouses": 4625,
      "lat": 4626,
      "talking": 4627,
      "increase": 4628,
      "asp": 4629,
      "fate": 4630,
      "serve": 4631,
      "fro": 4632,
      "cot": 4633,
      "corre": 4634,
      "une": 4635,
      "glo": 4636,
      "liberty": 4637,
      "yield": 4638,
      "office": 4639,
      "repeated": 4640,
      "ears": 4641,
      "figure": 4642,
      "Egypt": 4643,
      "save": 4644,
      "series": 4645,
      "amount": 4646,
      "equally": 4647,
      "excl": 4648,
      "RO": 4649,
      "Ver": 4650,
      "mat": 4651,
      "coast": 4652,
      "progress": 4653,
      "across": 4654,
      "iently": 4655,
      "snow": 4656,
      "reck": 4657,
      "AG": 4658,
      "eld": 4659,
      "heavy": 4660,
      "aud": 4661,
      "resem": 4662,
      "mountain": 4663,
      "aters": 4664,
      "Cap": 4665,
      "sphere": 4666,
      "waiting": 4667,
      "military": 4668,
      "ables": 4669,
      "cruel": 4670,
      "reading": 4671,
      "philosophy": 4672,
      "August": 4673,
      "sail": 4674,
      "clearly": 4675,
      "favor": 4676,
      "walls": 4677,
      "taste": 4678,
      "explan": 4679,
      "mankind": 4680,
      "solid": 4681,
      "uted": 4682,
      "extra": 4683,
      "cing": 4684,
      "months": 4685,
      "shown": 4686,
      "married": 4687,
      "writ": 4688,
      "wisdom": 4689,
      "flesh": 4690,
      "abs": 4691,
      "extent": 4692,
      "servants": 4693,
      "hot": 4694,
      "Py": 4695,
      "prud": 4696,
      "scri": 4697,
      "ustration": 4698,
      "Anna": 4699,
      "thirty": 4700,
      "eous": 4701,
      "instru": 4702,
      "yellow": 4703,
      "pit": 4704,
      "wished": 4705,
      "rem": 4706,
      "breast": 4707,
      "AND": 4708,
      "Mel": 4709,
      "twi": 4710,
      "antic": 4711,
      "substance": 4712,
      "religious": 4713,
      "contro": 4714,
      "State": 4715,
      "May": 4716,
      "kiss": 4717,
      "mighty": 4718,
      "trade": 4719,
      "arrived": 4720,
      "brid": 4721,
      "wait": 4722,
      "hang": 4723,
      "Sect": 4724,
      "ares": 4725,
      "correspond": 4726,
      "current": 4727,
      "dep": 4728,
      "apart": 4729,
      "holy": 4730,
      "knowing": 4731,
      "exactly": 4732,
      "Ah": 4733,
      "ka": 4734,
      "forget": 4735,
      "shar": 4736,
      "oted": 4737,
      "method": 4738,
      "AT": 4739,
      "prepared": 4740,
      "ham": 4741,
      "highest": 4742,
      "rank": 4743,
      "rain": 4744,
      "promise": 4745,
      "big": 4746,
      "agon": 4747,
      "tender": 4748,
      "mortal": 4749,
      "Though": 4750,
      "hither": 4751,
      "surround": 4752,
      "narrow": 4753,
      "rare": 4754,
      "Good": 4755,
      "Hu": 4756,
      "defence": 4757,
      "garden": 4758,
      "affection": 4759,
      "inhabitants": 4760,
      "ture": 4761,
      "escape": 4762,
      "indic": 4763,
      "obliged": 4764,
      "unknown": 4765,
      "rote": 4766,
      "ached": 4767,
      "mode": 4768,
      "effort": 4769,
      "ladies": 4770,
      "dign": 4771,
      "thern": 4772,
      "fail": 4773,
      "forest": 4774,
      "ivity": 4775,
      "civil": 4776,
      "fancy": 4777,
      "lia": 4778,
      "perform": 4779,
      "concept": 4780,
      "hun": 4781,
      "rig": 4782,
      "swi": 4783,
      "sad": 4784,
      "century": 4785,
      "song": 4786,
      "closed": 4787,
      "citiz": 4788,
      "journey": 4789,
      "including": 4790,
      "worse": 4791,
      "aim": 4792,
      "pride": 4793,
      "provin": 4794,
      "Lic": 4795,
      "seat": 4796,
      "AM": 4797,
      "Par": 4798,
      "quer": 4799,
      "discus": 4800,
      "ING": 4801,
      "communic": 4802,
      "CE": 4803,
      "Fe": 4804,
      "oned": 4805,
      "utions": 4806,
      "pretty": 4807,
      "anyone": 4808,
      "DE": 4809,
      "lose": 4810,
      "houses": 4811,
      "ague": 4812,
      "health": 4813,
      "liance": 4814,
      "march": 4815,
      "Prin": 4816,
      "exclaim": 4817,
      "morrow": 4818,
      "iles": 4819,
      "joined": 4820,
      "xim": 4821,
      "ato": 4822,
      "whence": 4823,
      "crowd": 4824,
      "creature": 4825,
      "event": 4826,
      "rences": 4827,
      "special": 4828,
      "victory": 4829,
      "Ca": 4830,
      "cro": 4831,
      "rant": 4832,
      "bing": 4833,
      "sove": 4834,
      "dwell": 4835,
      "obey": 4836,
      "sett": 4837,
      "laughed": 4838,
      "Great": 4839,
      "particularly": 4840,
      "Phi": 4841,
      "acted": 4842,
      "pes": 4843,
      "contempt": 4844,
      "emies": 4845,
      "sensible": 4846,
      "aked": 4847,
      "omin": 4848,
      "sons": 4849,
      "happen": 4850,
      "VI": 4851,
      "fash": 4852,
      "addition": 4853,
      "Ma": 4854,
      "required": 4855,
      "belief": 4856,
      "render": 4857,
      "icles": 4858,
      "importance": 4859,
      "Bod": 4860,
      "active": 4861,
      "applic": 4862,
      "loud": 4863,
      "wing": 4864,
      "enemies": 4865,
      "hung": 4866,
      "soever": 4867,
      "ik": 4868,
      "twel": 4869,
      "medium": 4870,
      "directly": 4871,
      "fu": 4872,
      "sour": 4873,
      "Levin": 4874,
      "ram": 4875,
      "waters": 4876,
      "alous": 4877,
      "embr": 4878,
      "tail": 4879,
      "custo": 4880,
      "provided": 4881,
      "scarcely": 4882,
      "harm": 4883,
      "asc": 4884,
      "provide": 4885,
      "personal": 4886,
      "necessarily": 4887,
      "monstr": 4888,
      "Sat": 4889,
      "Su": 4890,
      "complain": 4891,
      "associated": 4892,
      "og": 4893,
      "wand": 4894,
      "wrote": 4895,
      "grou": 4896,
      "share": 4897,
      "forced": 4898,
      "founded": 4899,
      "bul": 4900,
      "letters": 4901,
      "usually": 4902,
      "custom": 4903,
      "deb": 4904,
      "external": 4905,
      "music": 4906,
      "attend": 4907,
      "north": 4908,
      "pity": 4909,
      "umph": 4910,
      "stop": 4911,
      "Law": 4912,
      "cities": 4913,
      "dinner": 4914,
      "countries": 4915,
      "kne": 4916,
      "Emperor": 4917,
      "Gener": 4918,
      "likewise": 4919,
      "vision": 4920,
      "nes": 4921,
      "istic": 4922,
      "Stepan": 4923,
      "infer": 4924,
      "tur": 4925,
      "shore": 4926,
      "othe": 4927,
      "Dor": 4928,
      "ishes": 4929,
      "affairs": 4930,
      "numerous": 4931,
      "Ob": 4932,
      "ata": 4933,
      "pound": 4934,
      "kinds": 4935,
      "reply": 4936,
      "imagine": 4937,
      "Bes": 4938,
      "Ser": 4939,
      "forts": 4940,
      "TO": 4941,
      "ral": 4942,
      "observe": 4943,
      "Come": 4944,
      "ball": 4945,
      "inno": 4946,
      "exceed": 4947,
      "remo": 4948,
      "angry": 4949,
      "grave": 4950,
      "Italy": 4951,
      "fruit": 4952,
      "fier": 4953,
      "owed": 4954,
      "spite": 4955,
      "divided": 4956,
      "pieces": 4957,
      "defect": 4958,
      "invol": 4959,
      "obsc": 4960,
      "America": 4961,
      "endeav": 4962,
      "Ge": 4963,
      "bered": 4964,
      "fashion": 4965,
      "Ad": 4966,
      "palace": 4967,
      "drawing": 4968,
      "21": 4969,
      "acle": 4970,
      "speech": 4971,
      "train": 4972,
      "Those": 4973,
      "completely": 4974,
      "explained": 4975,
      "adop": 4976,
      "choice": 4977,
      "invest": 4978,
      "ws": 4979,
      "shut": 4980,
      "disci": 4981,
      "AS": 4982,
      "assem": 4983,
      "fold": 4984,
      "principal": 4985,
      "acious": 4986,
      "flowers": 4987,
      "Je": 4988,
      "idently": 4989,
      "ades": 4990,
      "immediate": 4991,
      "apo": 4992,
      "explanation": 4993,
      "gentleman": 4994,
      "tu": 4995,
      "numbers": 4996,
      "caught": 4997,
      "mill": 4998,
      "matters": 4999,
      "pic": 5000,
      "faces": 5001,
      "faction": 5002,
      "neck": 5003,
      "cher": 5004,
      "histori": 5005,
      "acid": 5006,
      "hall": 5007,
      "tongue": 5008,
      "Tur": 5009,
      "isto": 5010,
      "quality": 5011,
      "Which": 5012,
      "avoid": 5013,
      "clim": 5014,
      "Madame": 5015,
      "broad": 5016,
      "iam": 5017,
      "Hist": 5018,
      "Greeks": 5019,
      "dry": 5020,
      "Char": 5021,
      "interpret": 5022,
      "fallen": 5023,
      "aston": 5024,
      "events": 5025,
      "refr": 5026,
      "admir": 5027,
      "fright": 5028,
      "vey": 5029,
      "established": 5030,
      "bish": 5031,
      "connected": 5032,
      "dare": 5033,
      "thin": 5034,
      "thro": 5035,
      "sensation": 5036,
      "deli": 5037,
      "phr": 5038,
      "Are": 5039,
      "rock": 5040,
      "armed": 5041,
      "powerful": 5042,
      "satisfied": 5043,
      "believed": 5044,
      "Spirit": 5045,
      "theless": 5046,
      "lian": 5047,
      "native": 5048,
      "famili": 5049,
      "vast": 5050,
      "beat": 5051,
      "lip": 5052,
      "33": 5053,
      "fly": 5054,
      "ias": 5055,
      "ival": 5056,
      "spirits": 5057,
      "distribution": 5058,
      "hence": 5059,
      "erable": 5060,
      "spoken": 5061,
      "situation": 5062,
      "eneath": 5063,
      "ential": 5064,
      "evol": 5065,
      "impul": 5066,
      "stor": 5067,
      "properly": 5068,
      "village": 5069,
      "License": 5070,
      "infinite": 5071,
      "whis": 5072,
      "edge": 5073,
      "preced": 5074,
      "pping": 5075,
      "Er": 5076,
      "south": 5077,
      "odor": 5078,
      "stopped": 5079,
      "possessed": 5080,
      "news": 5081,
      "France": 5082,
      "spiritual": 5083,
      "tone": 5084,
      "compreh": 5085,
      "actually": 5086,
      "slave": 5087,
      "myster": 5088,
      "advanced": 5089,
      "triumph": 5090,
      "beast": 5091,
      "estic": 5092,
      "exercise": 5093,
      "forty": 5094,
      "osity": 5095,
      "accur": 5096,
      "poses": 5097,
      "ots": 5098,
      "sacred": 5099,
      "keeping": 5100,
      "print": 5101,
      "useful": 5102,
      "ering": 5103,
      "senses": 5104,
      "TR": 5105,
      "Chap": 5106,
      "killed": 5107,
      "secure": 5108,
      "seve": 5109,
      "calcul": 5110,
      "afford": 5111,
      "ceiving": 5112,
      "knight": 5113,
      "whil": 5114,
      "doctrine": 5115,
      "dig": 5116,
      "Thee": 5117,
      "IL": 5118,
      "taught": 5119,
      "acles": 5120,
      "sci": 5121,
      "familiar": 5122,
      "imper": 5123,
      "sav": 5124,
      "sn": 5125,
      "toward": 5126,
      "doth": 5127,
      "defend": 5128,
      "removed": 5129,
      "star": 5130,
      "regarded": 5131,
      "Illustration": 5132,
      "Mon": 5133,
      "royal": 5134,
      "manners": 5135,
      "positions": 5136,
      "experiment": 5137,
      "thrown": 5138,
      "ante": 5139,
      "omy": 5140,
      "beside": 5141,
      "cele": 5142,
      "sharp": 5143,
      "mod": 5144,
      "boat": 5145,
      "freely": 5146,
      "airs": 5147,
      "vert": 5148,
      "resto": 5149,
      "Min": 5150,
      "posing": 5151,
      "witness": 5152,
      "sought": 5153,
      "double": 5154,
      "twelve": 5155,
      "expressed": 5156,
      "leaving": 5157,
      "clothes": 5158,
      "dimin": 5159,
      "restr": 5160,
      "shape": 5161,
      "consent": 5162,
      "admit": 5163,
      "questions": 5164,
      "famous": 5165,
      "elements": 5166,
      "Dis": 5167,
      "tea": 5168,
      "protected": 5169,
      "sell": 5170,
      "eager": 5171,
      "opportunity": 5172,
      "text": 5173,
      "stock": 5174,
      "behold": 5175,
      "modif": 5176,
      "spec": 5177,
      "celebr": 5178,
      "retreat": 5179,
      "choose": 5180,
      "stars": 5181,
      "enced": 5182,
      "issu": 5183,
      "ria": 5184,
      "feat": 5185,
      "hid": 5186,
      "perpet": 5187,
      "evident": 5188,
      "inction": 5189,
      "collect": 5190,
      "breath": 5191,
      "girls": 5192,
      "heads": 5193,
      "Again": 5194,
      "bare": 5195,
      "extraordinary": 5196,
      "TY": 5197,
      "cler": 5198,
      "smiled": 5199,
      "Son": 5200,
      "ds": 5201,
      "condem": 5202,
      "Tis": 5203,
      "deed": 5204,
      "attribut": 5205,
      "ounced": 5206,
      "derived": 5207,
      "permission": 5208,
      "obv": 5209,
      "impression": 5210,
      "eral": 5211,
      "Brit": 5212,
      "este": 5213,
      "fields": 5214,
      "absolutely": 5215,
      "45": 5216,
      "cean": 5217,
      "TION": 5218,
      "hearing": 5219,
      "bank": 5220,
      "splend": 5221,
      "composed": 5222,
      "presented": 5223,
      "cript": 5224,
      "centre": 5225,
      "education": 5226,
      "gradually": 5227,
      "Romans": 5228,
      "mess": 5229,
      "instr": 5230,
      "contem": 5231,
      "obtained": 5232,
      "changes": 5233,
      "whilst": 5234,
      "Gl": 5235,
      "disput": 5236,
      "engaged": 5237,
      "akes": 5238,
      "distinguished": 5239,
      "pull": 5240,
      "Melanc": 5241,
      "Kt": 5242,
      "noticed": 5243,
      "size": 5244,
      "praise": 5245,
      "inen": 5246,
      "Melanctha": 5247,
      "ien": 5248,
      "destru": 5249,
      "advance": 5250,
      "separate": 5251,
      "thesis": 5252,
      "perceive": 5253,
      "accident": 5254,
      "expense": 5255,
      "fifty": 5256,
      "compe": 5257,
      "threat": 5258,
      "tw": 5259,
      "offered": 5260,
      "unable": 5261,
      "proud": 5262,
      "evidence": 5263,
      "dim": 5264,
      "solic": 5265,
      "loc": 5266,
      "hib": 5267,
      "neighbour": 5268,
      "pale": 5269,
      "qualities": 5270,
      "sovereign": 5271,
      "eternal": 5272,
      "obed": 5273,
      "truly": 5274,
      "created": 5275,
      "opinions": 5276,
      "iqu": 5277,
      "accompl": 5278,
      "hypo": 5279,
      "named": 5280,
      "However": 5281,
      "Fir": 5282,
      "ding": 5283,
      "grown": 5284,
      "conquer": 5285,
      "picture": 5286,
      "ignorant": 5287,
      "grew": 5288,
      "rising": 5289,
      "dangerous": 5290,
      "looks": 5291,
      "excellent": 5292,
      "Cf": 5293,
      "marry": 5294,
      "Yüan": 5295,
      "running": 5296,
      "Ven": 5297,
      "fed": 5298,
      "ky": 5299,
      "distress": 5300,
      "Pet": 5301,
      "fond": 5302,
      "willing": 5303,
      "brain": 5304,
      "unk": 5305,
      "board": 5306,
      "growth": 5307,
      "ignorance": 5308,
      "esty": 5309,
      "actual": 5310,
      "decided": 5311,
      "cultiv": 5312,
      "marked": 5313,
      "prepar": 5314,
      "faithful": 5315,
      "reasons": 5316,
      "term": 5317,
      "confidence": 5318,
      "bottom": 5319,
      "Gen": 5320,
      "beneath": 5321,
      "aband": 5322,
      "invent": 5323,
      "aware": 5324,
      "60": 5325,
      "capt": 5326,
      "sentence": 5327,
      "darkness": 5328,
      "stands": 5329,
      "consideration": 5330,
      "grees": 5331,
      "suspic": 5332,
      "proble": 5333,
      "Cy": 5334,
      "grass": 5335,
      "acity": 5336,
      "surprise": 5337,
      "lice": 5338,
      "applied": 5339,
      "delic": 5340,
      "officers": 5341,
      "Div": 5342,
      "perceived": 5343,
      "collection": 5344,
      "rat": 5345,
      "tray": 5346,
      "skin": 5347,
      "continually": 5348,
      "North": 5349,
      "speed": 5350,
      "cous": 5351,
      "weep": 5352,
      "refund": 5353,
      "Besides": 5354,
      "eks": 5355,
      "itated": 5356,
      "ldom": 5357,
      "cil": 5358,
      "constru": 5359,
      "bitter": 5360,
      "del": 5361,
      "shell": 5362,
      "motions": 5363,
      "probable": 5364,
      "commonly": 5365,
      "reflect": 5366,
      "exclaimed": 5367,
      "Chapter": 5368,
      "Med": 5369,
      "itor": 5370,
      "Br": 5371,
      "General": 5372,
      "chapter": 5373,
      "imagination": 5374,
      "remarkable": 5375,
      "abe": 5376,
      "hes": 5377,
      "element": 5378,
      "gutenberg": 5379,
      "www": 5380,
      "advent": 5381,
      "wicked": 5382,
      "appreh": 5383,
      "copies": 5384,
      "illust": 5385,
      "calm": 5386,
      "Wor": 5387,
      "precise": 5388,
      "mark": 5389,
      "monarch": 5390,
      "title": 5391,
      "cheer": 5392,
      "Have": 5393,
      "obst": 5394,
      "intellectual": 5395,
      "ENT": 5396,
      "occupied": 5397,
      "seldom": 5398,
      "season": 5399,
      "Afri": 5400,
      "genius": 5401,
      "practice": 5402,
      "dur": 5403,
      "win": 5404,
      "Since": 5405,
      "fil": 5406,
      "cham": 5407,
      "burst": 5408,
      "zen": 5409,
      "ordered": 5410,
      "mechan": 5411,
      "sul": 5412,
      "showed": 5413,
      "strict": 5414,
      "ancing": 5415,
      "48": 5416,
      "Never": 5417,
      "Aly": 5418,
      "Hence": 5419,
      "Lady": 5420,
      "edition": 5421,
      "chant": 5422,
      "Jes": 5423,
      "Lyd": 5424,
      "istr": 5425,
      "aving": 5426,
      "hom": 5427,
      "sch": 5428,
      "bent": 5429,
      "treas": 5430,
      "Constantin": 5431,
      "nur": 5432,
      "fet": 5433,
      "sia": 5434,
      "conscience": 5435,
      "colours": 5436,
      "zed": 5437,
      "antly": 5438,
      "Perhaps": 5439,
      "oked": 5440,
      "War": 5441,
      "sper": 5442,
      "thine": 5443,
      "efforts": 5444,
      "regul": 5445,
      "legs": 5446,
      "ero": 5447,
      "priest": 5448,
      "liked": 5449,
      "preci": 5450,
      "intention": 5451,
      "larger": 5452,
      "thinks": 5453,
      "stead": 5454,
      "develop": 5455,
      "liqu": 5456,
      "broke": 5457,
      "coat": 5458,
      "clock": 5459,
      "profit": 5460,
      "argument": 5461,
      "continue": 5462,
      "Athenians": 5463,
      "sigh": 5464,
      "Pal": 5465,
      "evidently": 5466,
      "trying": 5467,
      "universal": 5468,
      "rum": 5469,
      "Had": 5470,
      "amongst": 5471,
      "ruin": 5472,
      "threw": 5473,
      "affected": 5474,
      "prophe": 5475,
      "LA": 5476,
      "subs": 5477,
      "scow": 5478,
      "attract": 5479,
      "llen": 5480,
      "ctive": 5481,
      "serious": 5482,
      "Christians": 5483,
      "provinces": 5484,
      "reput": 5485,
      "angers": 5486,
      "corrupt": 5487,
      "results": 5488,
      "Des": 5489,
      "cere": 5490,
      "licity": 5491,
      "ister": 5492,
      "female": 5493,
      "indul": 5494,
      "inus": 5495,
      "degrees": 5496,
      "shows": 5497,
      "propri": 5498,
      "official": 5499,
      "rules": 5500,
      "amed": 5501,
      "solemn": 5502,
      "Gu": 5503,
      "intu": 5504,
      "eff": 5505,
      "ties": 5506,
      "west": 5507,
      "seless": 5508,
      "contact": 5509,
      "join": 5510,
      "limited": 5511,
      "energy": 5512,
      "ásha": 5513,
      "independent": 5514,
      "Section": 5515,
      "vile": 5516,
      "Liu": 5517,
      "gall": 5518,
      "attain": 5519,
      "slaves": 5520,
      "psycho": 5521,
      "thed": 5522,
      "golden": 5523,
      "link": 5524,
      "DI": 5525,
      "eper": 5526,
      "ore": 5527,
      "rob": 5528,
      "moving": 5529,
      "station": 5530,
      "Ed": 5531,
      "flight": 5532,
      "crimin": 5533,
      "duties": 5534,
      "angle": 5535,
      "month": 5536,
      "calls": 5537,
      "rage": 5538,
      "reser": 5539,
      "fault": 5540,
      "finally": 5541,
      "possibility": 5542,
      "arise": 5543,
      "transl": 5544,
      "represented": 5545,
      "suffering": 5546,
      "grief": 5547,
      "slowly": 5548,
      "sand": 5549,
      "lli": 5550,
      "inn": 5551,
      "intim": 5552,
      "thereby": 5553,
      "error": 5554,
      "information": 5555,
      "farther": 5556,
      "esteem": 5557,
      "More": 5558,
      "interval": 5559,
      "osha": 5560,
      "va": 5561,
      "repro": 5562,
      "aside": 5563,
      "corner": 5564,
      "purch": 5565,
      "accepted": 5566,
      "Alyosha": 5567,
      "mony": 5568,
      "ators": 5569,
      "owner": 5570,
      "peas": 5571,
      "blow": 5572,
      "settled": 5573,
      "otion": 5574,
      "smiling": 5575,
      "East": 5576,
      "lod": 5577,
      "intended": 5578,
      "stup": 5579,
      "mathem": 5580,
      "First": 5581,
      "fare": 5582,
      "rupted": 5583,
      "wholly": 5584,
      "raise": 5585,
      "counter": 5586,
      "manu": 5587,
      "Therefore": 5588,
      "Ear": 5589,
      "hate": 5590,
      "hosp": 5591,
      "rian": 5592,
      "domestic": 5593,
      "interesting": 5594,
      "attered": 5595,
      "terday": 5596,
      "correct": 5597,
      "indust": 5598,
      "spent": 5599,
      "notion": 5600,
      "indif": 5601,
      "phrase": 5602,
      "plants": 5603,
      "Only": 5604,
      "een": 5605,
      "ially": 5606,
      "noon": 5607,
      "Andrew": 5608,
      "scene": 5609,
      "ador": 5610,
      "thence": 5611,
      "excess": 5612,
      "Many": 5613,
      "uce": 5614,
      "41": 5615,
      "Did": 5616,
      "rance": 5617,
      "dignity": 5618,
      "47": 5619,
      "listen": 5620,
      "connection": 5621,
      "glor": 5622,
      "severe": 5623,
      "conquest": 5624,
      "excited": 5625,
      "distributing": 5626,
      "La": 5627,
      "reward": 5628,
      "built": 5629,
      "sensations": 5630,
      "labor": 5631,
      "OO": 5632,
      "forgotten": 5633,
      "aign": 5634,
      "catch": 5635,
      "mercy": 5636,
      "Natásha": 5637,
      "Constantinople": 5638,
      "Light": 5639,
      "Ye": 5640,
      "inquir": 5641,
      "surprised": 5642,
      "finished": 5643,
      "sacrifice": 5644,
      "Cas": 5645,
      "nine": 5646,
      "vii": 5647,
      "surd": 5648,
      "despair": 5649,
      "Barbar": 5650,
      "itate": 5651,
      "gentlemen": 5652,
      "throne": 5653,
      "jealous": 5654,
      "caused": 5655,
      "conclusion": 5656,
      "lust": 5657,
      "iff": 5658,
      "merit": 5659,
      "Tro": 5660,
      "fled": 5661,
      "social": 5662,
      "creatures": 5663,
      "Val": 5664,
      "laughing": 5665,
      "reject": 5666,
      "pop": 5667,
      "appointed": 5668,
      "Str": 5669,
      "east": 5670,
      "kings": 5671,
      "vir": 5672,
      "members": 5673,
      "90": 5674,
      "Hor": 5675,
      "cat": 5676,
      "differ": 5677,
      "divers": 5678,
      "instit": 5679,
      "midst": 5680,
      "happens": 5681,
      "terrible": 5682,
      "leep": 5683,
      "iety": 5684,
      "mental": 5685,
      "clean": 5686,
      "virtues": 5687,
      "orous": 5688,
      "holding": 5689,
      "inations": 5690,
      "hills": 5691,
      "Its": 5692,
      "AB": 5693,
      "US": 5694,
      "rous": 5695,
      "lean": 5696,
      "reader": 5697,
      "thyself": 5698,
      "temple": 5699,
      "mistress": 5700,
      "hitherto": 5701,
      "escap": 5702,
      "Ep": 5703,
      "goods": 5704,
      "phenomenon": 5705,
      "license": 5706,
      "pron": 5707,
      "unte": 5708,
      "uniform": 5709,
      "clouds": 5710,
      "46": 5711,
      "farm": 5712,
      "absurd": 5713,
      "habits": 5714,
      "treated": 5715,
      "som": 5716,
      "tes": 5717,
      "partly": 5718,
      "sufficiently": 5719,
      "distinction": 5720,
      "formerly": 5721,
      "satisfaction": 5722,
      "blame": 5723,
      "quis": 5724,
      "reduced": 5725,
      "political": 5726,
      "vice": 5727,
      "remembered": 5728,
      "luck": 5729,
      "increased": 5730,
      "street": 5731,
      "falls": 5732,
      "meeting": 5733,
      "parents": 5734,
      "Hs": 5735,
      "reasonable": 5736,
      "sensi": 5737,
      "domin": 5738,
      "stir": 5739,
      "Ital": 5740,
      "province": 5741,
      "Moscow": 5742,
      "calling": 5743,
      "captain": 5744,
      "UN": 5745,
      "destruction": 5746,
      "faint": 5747,
      "lif": 5748,
      "growing": 5749,
      "stu": 5750,
      "exec": 5751,
      "friendship": 5752,
      "extremely": 5753,
      "eBooks": 5754,
      "astic": 5755,
      "metal": 5756,
      "san": 5757,
      "exerc": 5758,
      "related": 5759,
      "nice": 5760,
      "alive": 5761,
      "charm": 5762,
      "circle": 5763,
      "intelligence": 5764,
      "Was": 5765,
      "frequent": 5766,
      "fame": 5767,
      "directed": 5768,
      "laughter": 5769,
      "kin": 5770,
      "kno": 5771,
      "Gre": 5772,
      "united": 5773,
      "activity": 5774,
      "Before": 5775,
      "observation": 5776,
      "twice": 5777,
      "manufact": 5778,
      "wear": 5779,
      "poem": 5780,
      "impat": 5781,
      "Cath": 5782,
      "abund": 5783,
      "served": 5784,
      "Indian": 5785,
      "citizens": 5786,
      "gest": 5787,
      "relative": 5788,
      "Accord": 5789,
      "crown": 5790,
      "righteous": 5791,
      "comply": 5792,
      "Love": 5793,
      "South": 5794,
      "tran": 5795,
      "fourth": 5796,
      "Part": 5797,
      "namely": 5798,
      "hurt": 5799,
      "oxy": 5800,
      "carriage": 5801,
      "Count": 5802,
      "besto": 5803,
      "hopes": 5804,
      "passions": 5805,
      "princes": 5806,
      "Di": 5807,
      "sus": 5808,
      "introduced": 5809,
      "pred": 5810,
      "resh": 5811,
      "oul": 5812,
      "wash": 5813,
      "promised": 5814,
      "rush": 5815,
      "flower": 5816,
      "Toby": 5817,
      "Du": 5818,
      "retch": 5819,
      "market": 5820,
      "curi": 5821,
      "popular": 5822,
      "perception": 5823,
      "contribut": 5824,
      "ovna": 5825,
      "logical": 5826,
      "aking": 5827,
      "distri": 5828,
      "empty": 5829,
      "upper": 5830,
      "devil": 5831,
      "possibly": 5832,
      "El": 5833,
      "Wang": 5834,
      "valu": 5835,
      "complex": 5836,
      "greatly": 5837,
      "finding": 5838,
      "movements": 5839,
      "Jud": 5840,
      "itors": 5841,
      "isted": 5842,
      "ological": 5843,
      "readily": 5844,
      "dust": 5845,
      "uries": 5846,
      "Men": 5847,
      "ainted": 5848,
      "suffered": 5849,
      "Vir": 5850,
      "Bro": 5851,
      "counsel": 5852,
      "variety": 5853,
      "wishes": 5854,
      "weakness": 5855,
      "Mer": 5856,
      "Arab": 5857,
      "learning": 5858,
      "soldier": 5859,
      "hide": 5860,
      "rs": 5861,
      "wants": 5862,
      "begun": 5863,
      "cli": 5864,
      "icle": 5865,
      "compared": 5866,
      "physic": 5867,
      "acting": 5868,
      "pill": 5869,
      "wretched": 5870,
      "sumed": 5871,
      "souls": 5872,
      "fortunate": 5873,
      "West": 5874,
      "olic": 5875,
      "tum": 5876,
      "Master": 5877,
      "Var": 5878,
      "egg": 5879,
      "ump": 5880,
      "consists": 5881,
      "yesterday": 5882,
      "contained": 5883,
      "frag": 5884,
      "contradi": 5885,
      "Hy": 5886,
      "ena": 5887,
      "enance": 5888,
      "ental": 5889,
      "determine": 5890,
      "agreed": 5891,
      "ocean": 5892,
      "smaller": 5893,
      "acquaint": 5894,
      "thered": 5895,
      "advice": 5896,
      "honest": 5897,
      "31": 5898,
      "ino": 5899,
      "verted": 5900,
      "abstr": 5901,
      "Ku": 5902,
      "veget": 5903,
      "delay": 5904,
      "whenever": 5905,
      "falling": 5906,
      "fund": 5907,
      "shalt": 5908,
      "70": 5909,
      "óv": 5910,
      "earli": 5911,
      "remarked": 5912,
      "ology": 5913,
      "lux": 5914,
      "anxious": 5915,
      "YOU": 5916,
      "vy": 5917,
      "magistr": 5918,
      "publ": 5919,
      "experiments": 5920,
      "putting": 5921,
      "wings": 5922,
      "gas": 5923,
      "pens": 5924,
      "arest": 5925,
      "aken": 5926,
      "game": 5927,
      "32": 5928,
      "80": 5929,
      "finger": 5930,
      "improve": 5931,
      "chosen": 5932,
      "defin": 5933,
      "performed": 5934,
      "44": 5935,
      "Eliz": 5936,
      "VII": 5937,
      "vest": 5938,
      "teeth": 5939,
      "declared": 5940,
      "cular": 5941,
      "cease": 5942,
      "Chʻ": 5943,
      "distributed": 5944,
      "brave": 5945,
      "fingers": 5946,
      "Paris": 5947,
      "seized": 5948,
      "perman": 5949,
      "commod": 5950,
      "barbar": 5951,
      "maxim": 5952,
      "foolish": 5953,
      "dreams": 5954,
      "agreeable": 5955,
      "Hsü": 5956,
      "whale": 5957,
      "permitted": 5958,
      "patient": 5959,
      "Sal": 5960,
      "earnest": 5961,
      "Nothing": 5962,
      "structure": 5963,
      "listened": 5964,
      "Look": 5965,
      "grate": 5966,
      "Ber": 5967,
      "zing": 5968,
      "modest": 5969,
      "drop": 5970,
      "Sha": 5971,
      "Sub": 5972,
      "grav": 5973,
      "dish": 5974,
      "liter": 5975,
      "Chang": 5976,
      "needs": 5977,
      "multitude": 5978,
      "sees": 5979,
      "Paul": 5980,
      "level": 5981,
      "essential": 5982,
      "characters": 5983,
      "punishment": 5984,
      "Alexandrov": 5985,
      "firmed": 5986,
      "ounce": 5987,
      "Dorothe": 5988,
      "stupid": 5989,
      "murder": 5990,
      "plant": 5991,
      "ih": 5992,
      "stones": 5993,
      "stranger": 5994,
      "acquired": 5995,
      "agement": 5996,
      "acing": 5997,
      "insult": 5998,
      "haust": 5999,
      "exposed": 6000,
      "brea": 6001,
      "woods": 6002,
      "skill": 6003,
      "absence": 6004,
      "fi": 6005,
      "noise": 6006,
      "estim": 6007,
      "box": 6008,
      "talked": 6009,
      "Jesus": 6010,
      "Dorothea": 6011,
      "AC": 6012,
      "kov": 6013,
      "rub": 6014,
      "vous": 6015,
      "nearer": 6016,
      "conceptions": 6017,
      "plent": 6018,
      "umn": 6019,
      "prior": 6020,
      "minutes": 6021,
      "officer": 6022,
      "mour": 6023,
      "doctor": 6024,
      "ideal": 6025,
      "hearts": 6026,
      "obedience": 6027,
      "bert": 6028,
      "limits": 6029,
      "destroyed": 6030,
      "eh": 6031,
      "group": 6032,
      "ales": 6033,
      "extended": 6034,
      "bore": 6035,
      "plate": 6036,
      "shoulders": 6037,
      "Latin": 6038,
      "Feng": 6039,
      "sme": 6040,
      "popul": 6041,
      "cool": 6042,
      "brothers": 6043,
      "daily": 6044,
      "loqu": 6045,
      "union": 6046,
      "fulness": 6047,
      "surely": 6048,
      "descend": 6049,
      "sacrific": 6050,
      "cousin": 6051,
      "æs": 6052,
      "rows": 6053,
      "branches": 6054,
      "style": 6055,
      "previous": 6056,
      "sco": 6057,
      "vit": 6058,
      "writers": 6059,
      "ume": 6060,
      "rot": 6061,
      "accordingly": 6062,
      "burg": 6063,
      "inian": 6064,
      "exhaust": 6065,
      "passes": 6066,
      "rice": 6067,
      "singular": 6068,
      "asleep": 6069,
      "cow": 6070,
      "sorts": 6071,
      "bol": 6072,
      "inced": 6073,
      "mel": 6074,
      "depends": 6075,
      "VIII": 6076,
      "cies": 6077,
      "started": 6078,
      "dow": 6079,
      "lof": 6080,
      "unhappy": 6081,
      "conceive": 6082,
      "assert": 6083,
      "apply": 6084,
      "credit": 6085,
      "islands": 6086,
      "seated": 6087,
      "vict": 6088,
      "crime": 6089,
      "entertain": 6090,
      "55": 6091,
      "sses": 6092,
      "alike": 6093,
      "ceased": 6094,
      "working": 6095,
      "rev": 6096,
      "definite": 6097,
      "accompan": 6098,
      "Peter": 6099,
      "succeeded": 6100,
      "Script": 6101,
      "base": 6102,
      "cure": 6103,
      "prejud": 6104,
      "igned": 6105,
      "assistance": 6106,
      "mart": 6107,
      "imony": 6108,
      "moments": 6109,
      "admitted": 6110,
      "fatal": 6111,
      "Vol": 6112,
      "source": 6113,
      "graph": 6114,
      "asha": 6115,
      "wherein": 6116,
      "winds": 6117,
      "sorry": 6118,
      "ker": 6119,
      "exists": 6120,
      "fluid": 6121,
      "safety": 6122,
      "revenge": 6123,
      "49": 6124,
      "penet": 6125,
      "immen": 6126,
      "throughout": 6127,
      "committed": 6128,
      "pict": 6129,
      "adminis": 6130,
      "waves": 6131,
      "shadow": 6132,
      "division": 6133,
      "constitution": 6134,
      "rated": 6135,
      "carefully": 6136,
      "boys": 6137,
      "resolved": 6138,
      "Au": 6139,
      "LL": 6140,
      "stairs": 6141,
      "ysis": 6142,
      "check": 6143,
      "Mity": 6144,
      "êng": 6145,
      "ensions": 6146,
      "fleet": 6147,
      "week": 6148,
      "pered": 6149,
      "ements": 6150,
      "wonderful": 6151,
      "images": 6152,
      "rode": 6153,
      "depri": 6154,
      "reproach": 6155,
      "UT": 6156,
      "rendered": 6157,
      "comparis": 6158,
      "succession": 6159,
      "demonstr": 6160,
      "covery": 6161,
      "enses": 6162,
      "lets": 6163,
      "pover": 6164,
      "intent": 6165,
      "creation": 6166,
      "ilities": 6167,
      "request": 6168,
      "Elizabe": 6169,
      "haste": 6170,
      "ulty": 6171,
      "floor": 6172,
      "Captain": 6173,
      "Lydgate": 6174,
      "rejo": 6175,
      "distinguish": 6176,
      "sooner": 6177,
      "FOR": 6178,
      "page": 6179,
      "poc": 6180,
      "ilty": 6181,
      "circumstance": 6182,
      "separated": 6183,
      "Constantine": 6184,
      "Russian": 6185,
      "whereas": 6186,
      "rights": 6187,
      "fifteen": 6188,
      "Two": 6189,
      "task": 6190,
      "consult": 6191,
      "logy": 6192,
      "flame": 6193,
      "supply": 6194,
      "date": 6195,
      "──": 6196,
      "recon": 6197,
      "cian": 6198,
      "description": 6199,
      "Gal": 6200,
      "Sup": 6201,
      "becoming": 6202,
      "supre": 6203,
      "Upon": 6204,
      "discer": 6205,
      "granted": 6206,
      "American": 6207,
      "cra": 6208,
      "worn": 6209,
      "Under": 6210,
      "Elizabeth": 6211,
      "sust": 6212,
      "ulgar": 6213,
      "walking": 6214,
      "aspect": 6215,
      "glance": 6216,
      "telling": 6217,
      "acquainted": 6218,
      "sumption": 6219,
      "quarter": 6220,
      "quarters": 6221,
      "inward": 6222,
      "stat": 6223,
      "White": 6224,
      "volunte": 6225,
      "PRO": 6226,
      "confined": 6227,
      "mous": 6228,
      "termin": 6229,
      "uncertain": 6230,
      "volunt": 6231,
      "precious": 6232,
      "tendency": 6233,
      "prepare": 6234,
      "Imper": 6235,
      "deliver": 6236,
      "chamber": 6237,
      "els": 6238,
      "practical": 6239,
      "Note": 6240,
      "drag": 6241,
      "proceeded": 6242,
      "iring": 6243,
      "Like": 6244,
      "shouted": 6245,
      "record": 6246,
      "lius": 6247,
      "celebrated": 6248,
      "ost": 6249,
      "resistance": 6250,
      "views": 6251,
      "princess": 6252,
      "vessels": 6253,
      "rec": 6254,
      "atmo": 6255,
      "notes": 6256,
      "Sa": 6257,
      "inous": 6258,
      "icism": 6259,
      "guess": 6260,
      "legal": 6261,
      "ardon": 6262,
      "magic": 6263,
      "Har": 6264,
      "atory": 6265,
      "examples": 6266,
      "eties": 6267,
      "rational": 6268,
      "sink": 6269,
      "poll": 6270,
      "driven": 6271,
      "companion": 6272,
      "William": 6273,
      "mutual": 6274,
      "ascri": 6275,
      "terror": 6276,
      "maintained": 6277,
      "banks": 6278,
      "curiosity": 6279,
      "acknowled": 6280,
      "emon": 6281,
      "extrem": 6282,
      "presents": 6283,
      "Mount": 6284,
      "feast": 6285,
      "awn": 6286,
      "interests": 6287,
      "Black": 6288,
      "Fred": 6289,
      "weather": 6290,
      "everywhere": 6291,
      "viii": 6292,
      "Rost": 6293,
      "tin": 6294,
      "thorough": 6295,
      "key": 6296,
      "patri": 6297,
      "Jane": 6298,
      "dying": 6299,
      "loose": 6300,
      "disposition": 6301,
      "desired": 6302,
      "commer": 6303,
      "prompt": 6304,
      "convinced": 6305,
      "Catholic": 6306,
      "elder": 6307,
      "fierce": 6308,
      "investig": 6309,
      "lofty": 6310,
      "nevertheless": 6311,
      "assumed": 6312,
      "Nik": 6313,
      "thread": 6314,
      "wilt": 6315,
      "moreover": 6316,
      "attached": 6317,
      "cured": 6318,
      "immense": 6319,
      "Red": 6320,
      "closely": 6321,
      "Jove": 6322,
      "benefit": 6323,
      "problem": 6324,
      "za": 6325,
      "beheld": 6326,
      "amaz": 6327,
      "Cer": 6328,
      "advantages": 6329,
      "Ple": 6330,
      "fol": 6331,
      "remote": 6332,
      "Princess": 6333,
      "indign": 6334,
      "wouldn": 6335,
      "guilty": 6336,
      "obscure": 6337,
      "PO": 6338,
      "ilies": 6339,
      "humanity": 6340,
      "protect": 6341,
      "BE": 6342,
      "rays": 6343,
      "lake": 6344,
      "flow": 6345,
      "goodness": 6346,
      "beha": 6347,
      "beam": 6348,
      "yours": 6349,
      "occasions": 6350,
      "Lon": 6351,
      "grap": 6352,
      "stronger": 6353,
      "prudence": 6354,
      "hem": 6355,
      "accusto": 6356,
      "collected": 6357,
      "confusion": 6358,
      "paying": 6359,
      "slain": 6360,
      "violence": 6361,
      "discipl": 6362,
      "thunder": 6363,
      "wore": 6364,
      "legis": 6365,
      "revenue": 6366,
      "bridge": 6367,
      "ases": 6368,
      "difficulties": 6369,
      "inary": 6370,
      "refused": 6371,
      "remaining": 6372,
      "inferior": 6373,
      "Pres": 6374,
      "desires": 6375,
      "standard": 6376,
      "experienced": 6377,
      "preserved": 6378,
      "burning": 6379,
      "comparison": 6380,
      "lor": 6381,
      "liness": 6382,
      "Mos": 6383,
      "partial": 6384,
      "tempor": 6385,
      "visions": 6386,
      "42": 6387,
      "naked": 6388,
      "izing": 6389,
      "voy": 6390,
      "indis": 6391,
      "corpor": 6392,
      "contrast": 6393,
      "carrying": 6394,
      "industry": 6395,
      "Cal": 6396,
      "abo": 6397,
      "couldn": 6398,
      "settle": 6399,
      "Hel": 6400,
      "restri": 6401,
      "intuition": 6402,
      "editions": 6403,
      "final": 6404,
      "miserable": 6405,
      "Rostóv": 6406,
      "inth": 6407,
      "convi": 6408,
      "exe": 6409,
      "individuals": 6410,
      "London": 6411,
      "accustomed": 6412,
      "secur": 6413,
      "lict": 6414,
      "countenance": 6415,
      "suggested": 6416,
      "pounds": 6417,
      "Dan": 6418,
      "inity": 6419,
      "betray": 6420,
      "obvious": 6421,
      "signs": 6422,
      "bringing": 6423,
      "Holy": 6424,
      "assured": 6425,
      "development": 6426,
      "poverty": 6427,
      "Sam": 6428,
      "sie": 6429,
      "handsome": 6430,
      "solution": 6431,
      "65": 6432,
      "mu": 6433,
      "inside": 6434,
      "althy": 6435,
      "ferent": 6436,
      "Cour": 6437,
      "inal": 6438,
      "deem": 6439,
      "violent": 6440,
      "Mitya": 6441,
      "stim": 6442,
      "chain": 6443,
      "deny": 6444,
      "fathers": 6445,
      "cen": 6446,
      "total": 6447,
      "Life": 6448,
      "mistake": 6449,
      "observations": 6450,
      "Tell": 6451,
      "brief": 6452,
      "ED": 6453,
      "ashamed": 6454,
      "generous": 6455,
      "Among": 6456,
      "belongs": 6457,
      "swift": 6458,
      "sins": 6459,
      "pla": 6460,
      "ambition": 6461,
      "accompanied": 6462,
      "MI": 6463,
      "bade": 6464,
      "oting": 6465,
      "justly": 6466,
      "rooms": 6467,
      "drive": 6468,
      "ascertain": 6469,
      "prosper": 6470,
      "pled": 6471,
      "paralle": 6472,
      "temperature": 6473,
      "square": 6474,
      "Ano": 6475,
      "Ben": 6476,
      "chill": 6477,
      "inclined": 6478,
      "assume": 6479,
      "gift": 6480,
      "plainly": 6481,
      "sympath": 6482,
      "tall": 6483,
      "exception": 6484,
      "onely": 6485,
      "cking": 6486,
      "requires": 6487,
      "constantly": 6488,
      "amid": 6489,
      "ulation": 6490,
      "flat": 6491,
      "version": 6492,
      "highly": 6493,
      "Mart": 6494,
      "building": 6495,
      "turns": 6496,
      "distribute": 6497,
      "hurried": 6498,
      "reputation": 6499,
      "Ros": 6500,
      "kets": 6501,
      "wounded": 6502,
      "sheep": 6503,
      "abroad": 6504,
      "internal": 6505,
      "concerned": 6506,
      "prayer": 6507,
      "masters": 6508,
      "emotion": 6509,
      "beings": 6510,
      "profound": 6511,
      "universe": 6512,
      "Julian": 6513,
      "useless": 6514,
      "usions": 6515,
      "member": 6516,
      "operation": 6517,
      "oke": 6518,
      "sect": 6519,
      "project": 6520,
      "governor": 6521,
      "philosophers": 6522,
      "Another": 6523,
      "uct": 6524,
      "major": 6525,
      "cha": 6526,
      "usal": 6527,
      "quoth": 6528,
      "pression": 6529,
      "Ty": 6530,
      "Would": 6531,
      "rust": 6532,
      "desert": 6533,
      "foundation": 6534,
      "minded": 6535,
      "waited": 6536,
      "coll": 6537,
      "itudes": 6538,
      "chiefly": 6539,
      "savage": 6540,
      "aver": 6541,
      "stage": 6542,
      "itty": 6543,
      "ensity": 6544,
      "towns": 6545,
      "inher": 6546,
      "nod": 6547,
      "thank": 6548,
      "avail": 6549,
      "fortunes": 6550,
      "heavens": 6551,
      "bi": 6552,
      "zy": 6553,
      "tale": 6554,
      "leading": 6555,
      "Petrov": 6556,
      "Water": 6557,
      "purple": 6558,
      "conceal": 6559,
      "Divine": 6560,
      "cence": 6561,
      "Imperial": 6562,
      "Take": 6563,
      "torious": 6564,
      "vex": 6565,
      "utmost": 6566,
      "ulated": 6567,
      "production": 6568,
      "zeal": 6569,
      "local": 6570,
      "rog": 6571,
      "delive": 6572,
      "armies": 6573,
      "tails": 6574,
      "borrow": 6575,
      "NOTE": 6576,
      "57": 6577,
      "salt": 6578,
      "estern": 6579,
      "disgrace": 6580,
      "Aristo": 6581,
      "empir": 6582,
      "companions": 6583,
      "descended": 6584,
      "ST": 6585,
      "onia": 6586,
      "forbid": 6587,
      "substances": 6588,
      "generation": 6589,
      "families": 6590,
      "explo": 6591,
      "ashes": 6592,
      "nikov": 6593,
      "deliber": 6594,
      "istribut": 6595,
      "excit": 6596,
      "humble": 6597,
      "civi": 6598,
      "tort": 6599,
      "successive": 6600,
      "Mor": 6601,
      "Alexey": 6602,
      "located": 6603,
      "ading": 6604,
      "worst": 6605,
      "emb": 6606,
      "pressure": 6607,
      "Gover": 6608,
      "bill": 6609,
      "reflected": 6610,
      "branch": 6611,
      "oub": 6612,
      "withstanding": 6613,
      "Still": 6614,
      "needed": 6615,
      "vanity": 6616,
      "arguments": 6617,
      "nose": 6618,
      "artific": 6619,
      "misery": 6620,
      "excuse": 6621,
      "lately": 6622,
      "pin": 6623,
      "uns": 6624,
      "unconscious": 6625,
      "emin": 6626,
      "reflection": 6627,
      "opening": 6628,
      "faculty": 6629,
      "frame": 6630,
      "estate": 6631,
      "void": 6632,
      "XXX": 6633,
      "án": 6634,
      "Shall": 6635,
      "preserve": 6636,
      "precisely": 6637,
      "43": 6638,
      "dogs": 6639,
      "Bodies": 6640,
      "soil": 6641,
      "lit": 6642,
      "endure": 6643,
      "drunk": 6644,
      "delicate": 6645,
      "touched": 6646,
      "roll": 6647,
      "trembling": 6648,
      "execution": 6649,
      "recomm": 6650,
      "shel": 6651,
      "region": 6652,
      "finds": 6653,
      "borne": 6654,
      "gates": 6655,
      "rom": 6656,
      "asy": 6657,
      "ifies": 6658,
      "outward": 6659,
      "posit": 6660,
      "presently": 6661,
      "contains": 6662,
      "pel": 6663,
      "perpetual": 6664,
      "Lily": 6665,
      "Vron": 6666,
      "asking": 6667,
      "interrupted": 6668,
      "impulse": 6669,
      "CON": 6670,
      "flying": 6671,
      "saved": 6672,
      "Through": 6673,
      "gment": 6674,
      "Mag": 6675,
      "doors": 6676,
      "contri": 6677,
      "dressed": 6678,
      "Asia": 6679,
      "Earth": 6680,
      "Each": 6681,
      "aper": 6682,
      "gust": 6683,
      "ico": 6684,
      "reasoning": 6685,
      "consequences": 6686,
      "combat": 6687,
      "Greg": 6688,
      "Vronsky": 6689,
      "dess": 6690,
      "ulous": 6691,
      "coloured": 6692,
      "speaks": 6693,
      "bearing": 6694,
      "hidden": 6695,
      "olas": 6696,
      "otr": 6697,
      "singing": 6698,
      "candle": 6699,
      "Pyotr": 6700,
      "lum": 6701,
      "disease": 6702,
      "setting": 6703,
      "begins": 6704,
      "sius": 6705,
      "multip": 6706,
      "rad": 6707,
      "alty": 6708,
      "Prof": 6709,
      "rac": 6710,
      "replace": 6711,
      "confirmed": 6712,
      "positive": 6713,
      "ashed": 6714,
      "burden": 6715,
      "ented": 6716,
      "streets": 6717,
      "compelled": 6718,
      "feed": 6719,
      "sounds": 6720,
      "patience": 6721,
      "Africa": 6722,
      "based": 6723,
      "tho": 6724,
      "informed": 6725,
      "entrance": 6726,
      "appoint": 6727,
      "58": 6728,
      "Laced": 6729,
      "Que": 6730,
      "grant": 6731,
      "neighbor": 6732,
      "disposed": 6733,
      "function": 6734,
      "restored": 6735,
      "Tai": 6736,
      "cattle": 6737,
      "oy": 6738,
      "rocks": 6739,
      "smoke": 6740,
      "PH": 6741,
      "aps": 6742,
      "regret": 6743,
      "verses": 6744,
      "escaped": 6745,
      "64": 6746,
      "rivers": 6747,
      "opposed": 6748,
      "asser": 6749,
      "gained": 6750,
      "Power": 6751,
      "splendid": 6752,
      "IR": 6753,
      "bosom": 6754,
      "Information": 6755,
      "analysis": 6756,
      "assa": 6757,
      "omer": 6758,
      "dilig": 6759,
      "pains": 6760,
      "supported": 6761,
      "Theod": 6762,
      "younger": 6763,
      "67": 6764,
      "Uly": 6765,
      "dull": 6766,
      "district": 6767,
      "priori": 6768,
      "eloqu": 6769,
      "vague": 6770,
      "weigh": 6771,
      "syn": 6772,
      "Most": 6773,
      "aemon": 6774,
      "bones": 6775,
      "tells": 6776,
      "According": 6777,
      "uttered": 6778,
      "shade": 6779,
      "whatsoever": 6780,
      "elf": 6781,
      "dreadful": 6782,
      "mixed": 6783,
      "59": 6784,
      "Hen": 6785,
      "leon": 6786,
      "agger": 6787,
      "regions": 6788,
      "fury": 6789,
      "commanded": 6790,
      "utterly": 6791,
      "Old": 6792,
      "Right": 6793,
      "Sic": 6794,
      "kindness": 6795,
      "refuse": 6796,
      "signific": 6797,
      "quietly": 6798,
      "arose": 6799,
      "ims": 6800,
      "plane": 6801,
      "licy": 6802,
      "concealed": 6803,
      "apparently": 6804,
      "ibus": 6805,
      "comput": 6806,
      "Ulysses": 6807,
      "unexpected": 6808,
      "sentiment": 6809,
      "ggle": 6810,
      "irrit": 6811,
      "warri": 6812,
      "storm": 6813,
      "sevent": 6814,
      "traction": 6815,
      "clam": 6816,
      "differences": 6817,
      "donate": 6818,
      "guide": 6819,
      "innocent": 6820,
      "zz": 6821,
      "shine": 6822,
      "Both": 6823,
      "remarks": 6824,
      "duration": 6825,
      "Ang": 6826,
      "thetic": 6827,
      "ingen": 6828,
      "weap": 6829,
      "considering": 6830,
      "painful": 6831,
      "stern": 6832,
      "Bor": 6833,
      "tical": 6834,
      "sume": 6835,
      "summon": 6836,
      "deeply": 6837,
      "Tom": 6838,
      "card": 6839,
      "attended": 6840,
      "guilt": 6841,
      "adopted": 6842,
      "encour": 6843,
      "absor": 6844,
      "folly": 6845,
      "tired": 6846,
      "parties": 6847,
      "color": 6848,
      "successful": 6849,
      "supreme": 6850,
      "Ori": 6851,
      "Very": 6852,
      "lin": 6853,
      "surv": 6854,
      "examine": 6855,
      "conclude": 6856,
      "striking": 6857,
      "drove": 6858,
      "Mean": 6859,
      "increasing": 6860,
      "bishop": 6861,
      "pleasures": 6862,
      "errors": 6863,
      "Res": 6864,
      "lawy": 6865,
      "printed": 6866,
      "IX": 6867,
      "tories": 6868,
      "control": 6869,
      "cend": 6870,
      "stal": 6871,
      "tering": 6872,
      "ateg": 6873,
      "cial": 6874,
      "apped": 6875,
      "vary": 6876,
      "vices": 6877,
      "figures": 6878,
      "hostile": 6879,
      "ads": 6880,
      "compar": 6881,
      "ission": 6882,
      "transport": 6883,
      "hatred": 6884,
      "Spe": 6885,
      "mand": 6886,
      "tact": 6887,
      "remed": 6888,
      "hell": 6889,
      "rival": 6890,
      "perfor": 6891,
      "ample": 6892,
      "rude": 6893,
      "decision": 6894,
      "onies": 6895,
      "type": 6896,
      "careful": 6897,
      "crossed": 6898,
      "iot": 6899,
      "geo": 6900,
      "interested": 6901,
      "published": 6902,
      "Full": 6903,
      "Having": 6904,
      "Lou": 6905,
      "Sid": 6906,
      "shot": 6907,
      "amuse": 6908,
      "overcome": 6909,
      "heroes": 6910,
      "addressed": 6911,
      "Met": 6912,
      "urged": 6913,
      "ender": 6914,
      "Comp": 6915,
      "atives": 6916,
      "sects": 6917,
      "aints": 6918,
      "mounted": 6919,
      "WAR": 6920,
      "pair": 6921,
      "perfection": 6922,
      "ulf": 6923,
      "quarrel": 6924,
      "delighted": 6925,
      "ATION": 6926,
      "IG": 6927,
      "Nich": 6928,
      "oms": 6929,
      "arrival": 6930,
      "nic": 6931,
      "policy": 6932,
      "respon": 6933,
      "limbs": 6934,
      "discipline": 6935,
      "rou": 6936,
      "isher": 6937,
      "demo": 6938,
      "spake": 6939,
      "buy": 6940,
      "playing": 6941,
      "Athens": 6942,
      "flew": 6943,
      "clesi": 6944,
      "convey": 6945,
      "amond": 6946,
      "generations": 6947,
      "limit": 6948,
      "Lacedaemon": 6949,
      "RAN": 6950,
      "couple": 6951,
      "friendly": 6952,
      "queen": 6953,
      "smooth": 6954,
      "ruins": 6955,
      "buried": 6956,
      "gather": 6957,
      "Troj": 6958,
      "legisl": 6959,
      "Hon": 6960,
      "ping": 6961,
      "yard": 6962,
      "senate": 6963,
      "posted": 6964,
      "applicable": 6965,
      "cliff": 6966,
      "melancho": 6967,
      "Fri": 6968,
      "resolution": 6969,
      "acquaintance": 6970,
      "excitement": 6971,
      "Ele": 6972,
      "Pass": 6973,
      "evitch": 6974,
      "imagined": 6975,
      "eve": 6976,
      "jac": 6977,
      "allies": 6978,
      "NOT": 6979,
      "surrounded": 6980,
      "atmosphere": 6981,
      "Bu": 6982,
      "iable": 6983,
      "sche": 6984,
      "permanent": 6985,
      "mild": 6986,
      "uris": 6987,
      "ceives": 6988,
      "included": 6989,
      "Vic": 6990,
      "bears": 6991,
      "sincere": 6992,
      "inquired": 6993,
      "Cr": 6994,
      "Il": 6995,
      "suspect": 6996,
      "geomet": 6997,
      "spic": 6998,
      "blessed": 6999,
      "profession": 7000,
      "hint": 7001,
      "produces": 7002,
      "petition": 7003,
      "endeavour": 7004,
      "match": 7005,
      "rend": 7006,
      "suit": 7007,
      "Peters": 7008,
      "dropped": 7009,
      "delivered": 7010,
      "Fa": 7011,
      "Pav": 7012,
      "returning": 7013,
      "requirements": 7014,
      "Barbarians": 7015,
      "Rask": 7016,
      "Zar": 7017,
      "outer": 7018,
      "fert": 7019,
      "Sch": 7020,
      "oath": 7021,
      "atical": 7022,
      "Glass": 7023,
      "75": 7024,
      "Bet": 7025,
      "Rays": 7026,
      "illa": 7027,
      "retired": 7028,
      "olnikov": 7029,
      "compliance": 7030,
      "Raskolnikov": 7031,
      "nut": 7032,
      "insp": 7033,
      "everybody": 7034,
      "republic": 7035,
      "strongly": 7036,
      "enjoyed": 7037,
      "Alexander": 7038,
      "68": 7039,
      "Dar": 7040,
      "bel": 7041,
      "poly": 7042,
      "shed": 7043,
      "boast": 7044,
      "specul": 7045,
      "cells": 7046,
      "Mus": 7047,
      "bag": 7048,
      "protection": 7049,
      "instrument": 7050,
      "iture": 7051,
      "lover": 7052,
      "aft": 7053,
      "Greece": 7054,
      "subsist": 7055,
      "cab": 7056,
      "pious": 7057,
      "pardon": 7058,
      "uary": 7059,
      "Nicholas": 7060,
      "lament": 7061,
      "odd": 7062,
      "opposition": 7063,
      "convenient": 7064,
      "gifts": 7065,
      "administr": 7066,
      "Mah": 7067,
      "forgive": 7068,
      "played": 7069,
      "obstin": 7070,
      "ME": 7071,
      "bour": 7072,
      "disclaim": 7073,
      "doubtful": 7074,
      "displayed": 7075,
      "Jews": 7076,
      "scient": 7077,
      "grateful": 7078,
      "ti": 7079,
      "proposed": 7080,
      "duke": 7081,
      "disturbed": 7082,
      "shop": 7083,
      "valid": 7084,
      "Without": 7085,
      "antry": 7086,
      "grounds": 7087,
      "cret": 7088,
      "refer": 7089,
      "ica": 7090,
      "forming": 7091,
      "Sea": 7092,
      "struggle": 7093,
      "elsewhere": 7094,
      "Bel": 7095,
      "conceived": 7096,
      "ustra": 7097,
      "ANY": 7098,
      "melt": 7099,
      "additional": 7100,
      "Other": 7101,
      "afternoon": 7102,
      "seeking": 7103,
      "listening": 7104,
      "occurred": 7105,
      "sexual": 7106,
      "knees": 7107,
      "wers": 7108,
      "relie": 7109,
      "aling": 7110,
      "retain": 7111,
      "serp": 7112,
      "charged": 7113,
      "accordance": 7114,
      "69": 7115,
      "brings": 7116,
      "viour": 7117,
      "shook": 7118,
      "concern": 7119,
      "Pol": 7120,
      "oil": 7121,
      "theat": 7122,
      "remove": 7123,
      "providing": 7124,
      "Because": 7125,
      "instantly": 7126,
      "glorious": 7127,
      "hollow": 7128,
      "Del": 7129,
      "bull": 7130,
      "status": 7131,
      "empirical": 7132,
      "ornam": 7133,
      "det": 7134,
      "fling": 7135,
      "decis": 7136,
      "national": 7137,
      "persuaded": 7138,
      "Sover": 7139,
      "awful": 7140,
      "indifferent": 7141,
      "earlier": 7142,
      "volunteers": 7143,
      "Kitty": 7144,
      "enor": 7145,
      "advers": 7146,
      "Chou": 7147,
      "athustra": 7148,
      "daughters": 7149,
      "pursued": 7150,
      "pocket": 7151,
      "security": 7152,
      "Zarathustra": 7153,
      "Yu": 7154,
      "Zo": 7155,
      "trace": 7156,
      "plex": 7157,
      "repent": 7158,
      "cott": 7159,
      "frightened": 7160,
      "Jer": 7161,
      "anks": 7162,
      "discovery": 7163,
      "prefer": 7164,
      "Troy": 7165,
      "thic": 7166,
      "orge": 7167,
      "silk": 7168,
      "clergy": 7169,
      "suspicion": 7170,
      "mud": 7171,
      "pour": 7172,
      "vulgar": 7173,
      "receiving": 7174,
      "affirm": 7175,
      "strike": 7176,
      "Span": 7177,
      "employment": 7178,
      "beasts": 7179,
      "lifted": 7180,
      "Max": 7181,
      "Sar": 7182,
      "contract": 7183,
      "site": 7184,
      "hea": 7185,
      "poison": 7186,
      "prey": 7187,
      "Were": 7188,
      "showing": 7189,
      "ashing": 7190,
      "invited": 7191,
      "describe": 7192,
      "approached": 7193,
      "operations": 7194,
      "displaying": 7195,
      "Ivanovna": 7196,
      "Cic": 7197,
      "During": 7198,
      "Te": 7199,
      "vid": 7200,
      "recent": 7201,
      "horror": 7202,
      "classes": 7203,
      "Yor": 7204,
      "imposed": 7205,
      "aming": 7206,
      "wanting": 7207,
      "philosoph": 7208,
      "anxiety": 7209,
      "Britain": 7210,
      "melancholy": 7211,
      "Cir": 7212,
      "embar": 7213,
      "obli": 7214,
      "flatter": 7215,
      "physi": 7216,
      "psych": 7217,
      "flies": 7218,
      "renew": 7219,
      "travell": 7220,
      "awa": 7221,
      "holds": 7222,
      "treatment": 7223,
      "welcome": 7224,
      "udes": 7225,
      "genu": 7226,
      "schol": 7227,
      "Napo": 7228,
      "blance": 7229,
      "nervous": 7230,
      "sixty": 7231,
      "Mi": 7232,
      "veins": 7233,
      "lav": 7234,
      "dissol": 7235,
      "repeat": 7236,
      "pictures": 7237,
      "parallel": 7238,
      "pus": 7239,
      "dost": 7240,
      "revolution": 7241,
      "iquity": 7242,
      "relief": 7243,
      "confirm": 7244,
      "ula": 7245,
      "ulate": 7246,
      "leads": 7247,
      "Ba": 7248,
      "Fort": 7249,
      "Pri": 7250,
      "rag": 7251,
      "holder": 7252,
      "venture": 7253,
      "rers": 7254,
      "righteousness": 7255,
      "Till": 7256,
      "aya": 7257,
      "rath": 7258,
      "tribut": 7259,
      "distinctly": 7260,
      "rapidly": 7261,
      "aunt": 7262,
      "webs": 7263,
      "discourse": 7264,
      "lessly": 7265,
      "trial": 7266,
      "materials": 7267,
      "assur": 7268,
      "stick": 7269,
      "everyone": 7270,
      "preva": 7271,
      "territory": 7272,
      "disturb": 7273,
      "Jup": 7274,
      "flour": 7275,
      "lasting": 7276,
      "concluded": 7277,
      "hurry": 7278,
      "SI": 7279,
      "fears": 7280,
      "methods": 7281,
      "ipt": 7282,
      "188": 7283,
      "directions": 7284,
      "feeble": 7285,
      "100": 7286,
      "Sil": 7287,
      "UR": 7288,
      "rical": 7289,
      "smell": 7290,
      "eleg": 7291,
      "ju": 7292,
      "Jupiter": 7293,
      "conject": 7294,
      "toler": 7295,
      "oxygen": 7296,
      "Whe": 7297,
      "tê": 7298,
      "rear": 7299,
      "reverence": 7300,
      "condemned": 7301,
      "gs": 7302,
      "roof": 7303,
      "Next": 7304,
      "Spain": 7305,
      "amo": 7306,
      "fees": 7307,
      "loving": 7308,
      "magnific": 7309,
      "application": 7310,
      "subsequ": 7311,
      "Plato": 7312,
      "Liz": 7313,
      "Pre": 7314,
      "ania": 7315,
      "hole": 7316,
      "simplicity": 7317,
      "civiliz": 7318,
      "Petersburg": 7319,
      "iest": 7320,
      "pier": 7321,
      "ories": 7322,
      "beard": 7323,
      "meat": 7324,
      "shr": 7325,
      "execut": 7326,
      "swell": 7327,
      "slip": 7328,
      "lovely": 7329,
      "harmony": 7330,
      "annual": 7331,
      "Archer": 7332,
      "Casau": 7333,
      "reckon": 7334,
      "Den": 7335,
      "Ray": 7336,
      "fanci": 7337,
      "wet": 7338,
      "council": 7339,
      "copying": 7340,
      "Colours": 7341,
      "Sol": 7342,
      "bond": 7343,
      "About": 7344,
      "adventure": 7345,
      "ji": 7346,
      "Napoleon": 7347,
      "incapable": 7348,
      "ado": 7349,
      "spend": 7350,
      "handed": 7351,
      "Any": 7352,
      "radi": 7353,
      "tot": 7354,
      "leis": 7355,
      "wives": 7356,
      "entreat": 7357,
      "libr": 7358,
      "greatness": 7359,
      "grey": 7360,
      "fifth": 7361,
      "poetry": 7362,
      "plenty": 7363,
      "sympathy": 7364,
      "Sometimes": 7365,
      "ogen": 7366,
      "wrath": 7367,
      "seed": 7368,
      "imperfect": 7369,
      "prospect": 7370,
      "intense": 7371,
      "crates": 7372,
      "pag": 7373,
      "ên": 7374,
      "ille": 7375,
      "huge": 7376,
      "dict": 7377,
      "brown": 7378,
      "composition": 7379,
      "Common": 7380,
      "Mahomet": 7381,
      "Long": 7382,
      "stic": 7383,
      "conj": 7384,
      "morality": 7385,
      "rushed": 7386,
      "scattered": 7387,
      "virtuous": 7388,
      "measures": 7389,
      "reference": 7390,
      "shoulder": 7391,
      "arranged": 7392,
      "accomplished": 7393,
      "Give": 7394,
      "preach": 7395,
      "aneous": 7396,
      "VE": 7397,
      "gan": 7398,
      "angles": 7399,
      "desir": 7400,
      "portions": 7401,
      "instances": 7402,
      "Pan": 7403,
      "ict": 7404,
      "bride": 7405,
      "Chi": 7406,
      "nobody": 7407,
      "retire": 7408,
      "attach": 7409,
      "compound": 7410,
      "representation": 7411,
      "symp": 7412,
      "nurse": 7413,
      "Casaubon": 7414,
      "ids": 7415,
      "pursuit": 7416,
      "writer": 7417,
      "nonsense": 7418,
      "leisure": 7419,
      "56": 7420,
      "stretched": 7421,
      "feared": 7422,
      "mistaken": 7423,
      "features": 7424,
      "performan": 7425,
      "Ec": 7426,
      "motive": 7427,
      "Scripture": 7428,
      "uri": 7429,
      "ifying": 7430,
      "provisions": 7431,
      "Fy": 7432,
      "ication": 7433,
      "emer": 7434,
      "intercourse": 7435,
      "merchant": 7436,
      "pleasing": 7437,
      "High": 7438,
      "clever": 7439,
      "impressions": 7440,
      "Cæs": 7441,
      "sof": 7442,
      "hibit": 7443,
      "voices": 7444,
      "neglect": 7445,
      "attent": 7446,
      "lively": 7447,
      "thirst": 7448,
      "Creat": 7449,
      "Ev": 7450,
      "Rh": 7451,
      "waste": 7452,
      "originally": 7453,
      "departure": 7454,
      "performing": 7455,
      "weeping": 7456,
      "Italian": 7457,
      "weary": 7458,
      "hastily": 7459,
      "drinking": 7460,
      "tranqu": 7461,
      "Moses": 7462,
      "Lem": 7463,
      "gle": 7464,
      "deeds": 7465,
      "ults": 7466,
      "cook": 7467,
      "guests": 7468,
      "tribes": 7469,
      "gathered": 7470,
      "approaching": 7471,
      "kissed": 7472,
      "Profess": 7473,
      "Bl": 7474,
      "pitch": 7475,
      "heed": 7476,
      "exhib": 7477,
      "failed": 7478,
      "belonging": 7479,
      "Ce": 7480,
      "ola": 7481,
      "tast": 7482,
      "ultim": 7483,
      "genuine": 7484,
      "caval": 7485,
      "establish": 7486,
      "maiden": 7487,
      "ulus": 7488,
      "capacity": 7489,
      "crying": 7490,
      "wars": 7491,
      "alarm": 7492,
      "ching": 7493,
      "ural": 7494,
      "accum": 7495,
      "shining": 7496,
      "joint": 7497,
      "supper": 7498,
      "Meanwhile": 7499,
      "EX": 7500,
      "Reas": 7501,
      "anno": 7502,
      "moderate": 7503,
      "majesty": 7504,
      "fundament": 7505,
      "attained": 7506,
      "ricity": 7507,
      "fever": 7508,
      "woe": 7509,
      "END": 7510,
      "bath": 7511,
      "kitch": 7512,
      "const": 7513,
      "plains": 7514,
      "fighting": 7515,
      "fest": 7516,
      "concent": 7517,
      "perplex": 7518,
      "transcend": 7519,
      "arrive": 7520,
      "watched": 7521,
      "altern": 7522,
      "shield": 7523,
      "Indeed": 7524,
      "guest": 7525,
      "clesiast": 7526,
      "bind": 7527,
      "deceived": 7528,
      "ushing": 7529,
      "shores": 7530,
      "dance": 7531,
      "mical": 7532,
      "pow": 7533,
      "loves": 7534,
      "grows": 7535,
      "characteristic": 7536,
      "voluntary": 7537,
      "thoroughly": 7538,
      "Certain": 7539,
      "era": 7540,
      "creating": 7541,
      "firmly": 7542,
      "78": 7543,
      "sov": 7544,
      "salvation": 7545,
      "Ter": 7546,
      "Up": 7547,
      "nay": 7548,
      "narr": 7549,
      "range": 7550,
      "ya": 7551,
      "arse": 7552,
      "strangers": 7553,
      "cury": 7554,
      "ski": 7555,
      "ana": 7556,
      "hers": 7557,
      "umb": 7558,
      "Roy": 7559,
      "roads": 7560,
      "European": 7561,
      "hanging": 7562,
      "depth": 7563,
      "abandoned": 7564,
      "definition": 7565,
      "Fyodor": 7566,
      "Fer": 7567,
      "vac": 7568,
      "arter": 7569,
      "essence": 7570,
      "subtle": 7571,
      "decide": 7572,
      "Mal": 7573,
      "xi": 7574,
      "usive": 7575,
      "umes": 7576,
      "disd": 7577,
      "scale": 7578,
      "Sever": 7579,
      "bun": 7580,
      "isn": 7581,
      "details": 7582,
      "strain": 7583,
      "rested": 7584,
      "torment": 7585,
      "lam": 7586,
      "astr": 7587,
      "weeks": 7588,
      "notwithstanding": 7589,
      "nel": 7590,
      "sip": 7591,
      "Ark": 7592,
      "changing": 7593,
      "association": 7594,
      "isms": 7595,
      "tyrant": 7596,
      "appropri": 7597,
      "evolution": 7598,
      "slo": 7599,
      "thanks": 7600,
      "flames": 7601,
      "gratitude": 7602,
      "pho": 7603,
      "wol": 7604,
      "format": 7605,
      "volume": 7606,
      "interpretation": 7607,
      "quet": 7608,
      "gram": 7609,
      "containing": 7610,
      "treasure": 7611,
      "desper": 7612,
      "thrust": 7613,
      "alties": 7614,
      "Pat": 7615,
      "arbit": 7616,
      "consol": 7617,
      "properties": 7618,
      "IT": 7619,
      "greg": 7620,
      "thors": 7621,
      "assum": 7622,
      "lax": 7623,
      "substit": 7624,
      "respects": 7625,
      "pil": 7626,
      "asion": 7627,
      "licted": 7628,
      "lored": 7629,
      "66": 7630,
      "Bal": 7631,
      "pless": 7632,
      "someone": 7633,
      "extensive": 7634,
      "appet": 7635,
      "organs": 7636,
      "primitive": 7637,
      "51": 7638,
      "pas": 7639,
      "chest": 7640,
      "ESS": 7641,
      "declare": 7642,
      "deserve": 7643,
      "siege": 7644,
      "WARRAN": 7645,
      "website": 7646,
      "aloud": 7647,
      "resent": 7648,
      "passages": 7649,
      "calam": 7650,
      "prayers": 7651,
      "Jeff": 7652,
      "colle": 7653,
      "feels": 7654,
      "ridicul": 7655,
      "breaking": 7656,
      "Jen": 7657,
      "Word": 7658,
      "analy": 7659,
      "wept": 7660,
      "achie": 7661,
      "heavenly": 7662,
      "measured": 7663,
      "anticip": 7664,
      "Erh": 7665,
      "hypothesis": 7666,
      "stuff": 7667,
      "Professor": 7668,
      "uity": 7669,
      "thither": 7670,
      "complic": 7671,
      "cracy": 7672,
      "bodily": 7673,
      "regards": 7674,
      "watching": 7675,
      "TED": 7676,
      "Apoll": 7677,
      "Ri": 7678,
      "milk": 7679,
      "Germany": 7680,
      "punish": 7681,
      "fruits": 7682,
      "furnished": 7683,
      "Bul": 7684,
      "exert": 7685,
      "xt": 7686,
      "lift": 7687,
      "misfortune": 7688,
      "Gent": 7689,
      "Jan": 7690,
      "eating": 7691,
      "liable": 7692,
      "rif": 7693,
      "particles": 7694,
      "bliss": 7695,
      "store": 7696,
      "household": 7697,
      "brilli": 7698,
      "DIS": 7699,
      "Gaul": 7700,
      "Mil": 7701,
      "inches": 7702,
      "idents": 7703,
      "riches": 7704,
      "central": 7705,
      "sisters": 7706,
      "devotion": 7707,
      "previously": 7708,
      "messeng": 7709,
      "unning": 7710,
      "inquire": 7711,
      "toms": 7712,
      "Gods": 7713,
      "burnt": 7714,
      "superiority": 7715,
      "mare": 7716,
      "pages": 7717,
      "somewhere": 7718,
      "worked": 7719,
      "pressing": 7720,
      "begged": 7721,
      "inese": 7722,
      "superst": 7723,
      "administration": 7724,
      "percept": 7725,
      "anywhere": 7726,
      "Pei": 7727,
      "venge": 7728,
      "circul": 7729,
      "Air": 7730,
      "Isa": 7731,
      "Van": 7732,
      "tear": 7733,
      "disgust": 7734,
      "Christianity": 7735,
      "export": 7736,
      "timid": 7737,
      "spare": 7738,
      "History": 7739,
      "wont": 7740,
      "cognition": 7741,
      "Genji": 7742,
      "kitchen": 7743,
      "gross": 7744,
      "mber": 7745,
      "lla": 7746,
      "oph": 7747,
      "warn": 7748,
      "confused": 7749,
      "slept": 7750,
      "strode": 7751,
      "debt": 7752,
      "gently": 7753,
      "enthus": 7754,
      "urs": 7755,
      "exempt": 7756,
      "judic": 7757,
      "motives": 7758,
      "ministers": 7759,
      "stroke": 7760,
      "astonished": 7761,
      "Jo": 7762,
      "pup": 7763,
      "ols": 7764,
      "iame": 7765,
      "ization": 7766,
      "Second": 7767,
      "summ": 7768,
      "dispute": 7769,
      "Far": 7770,
      "fain": 7771,
      "irregular": 7772,
      "defined": 7773,
      "aren": 7774,
      "urches": 7775,
      "pole": 7776,
      "disorder": 7777,
      "returns": 7778,
      "Body": 7779,
      "cultivated": 7780,
      "Aristotle": 7781,
      "ggl": 7782,
      "stretch": 7783,
      "absent": 7784,
      "Wherefore": 7785,
      "determination": 7786,
      "Wo": 7787,
      "bought": 7788,
      "nment": 7789,
      "unjust": 7790,
      "unfortunate": 7791,
      "exchange": 7792,
      "certainty": 7793,
      "Alas": 7794,
      "taxes": 7795,
      "sanct": 7796,
      "majority": 7797,
      "sending": 7798,
      "stated": 7799,
      "lock": 7800,
      "derive": 7801,
      "northern": 7802,
      "doesn": 7803,
      "ranks": 7804,
      "valuable": 7805,
      "pack": 7806,
      "Chinese": 7807,
      "equip": 7808,
      "Death": 7809,
      "testimony": 7810,
      "BER": 7811,
      "therein": 7812,
      "parted": 7813,
      "wherever": 7814,
      "rightly": 7815,
      "limitation": 7816,
      "Should": 7817,
      "satisfy": 7818,
      "ique": 7819,
      "rele": 7820,
      "ench": 7821,
      "ferences": 7822,
      "rav": 7823,
      "Once": 7824,
      "expenses": 7825,
      "inclination": 7826,
      "purely": 7827,
      "corresponding": 7828,
      "Philoso": 7829,
      "acknowledged": 7830,
      "folk": 7831,
      "62": 7832,
      "Know": 7833,
      "idle": 7834,
      "poster": 7835,
      "existing": 7836,
      "defensive": 7837,
      "magne": 7838,
      "Russia": 7839,
      "omb": 7840,
      "acit": 7841,
      "intermedi": 7842,
      "visited": 7843,
      "painted": 7844,
      "Hsiang": 7845,
      "Charles": 7846,
      "mathematical": 7847,
      "fires": 7848,
      "rang": 7849,
      "irect": 7850,
      "appeal": 7851,
      "troubles": 7852,
      "Nay": 7853,
      "mes": 7854,
      "extend": 7855,
      "sensu": 7856,
      "relate": 7857,
      "breed": 7858,
      "horiz": 7859,
      "arises": 7860,
      "trusted": 7861,
      "Cam": 7862,
      "incident": 7863,
      "Observ": 7864,
      "scientific": 7865,
      "suitable": 7866,
      "colony": 7867,
      "supplied": 7868,
      "pulled": 7869,
      "IM": 7870,
      "rash": 7871,
      "shri": 7872,
      "nights": 7873,
      "ulties": 7874,
      "comfortable": 7875,
      "defective": 7876,
      "tracted": 7877,
      "enjoyment": 7878,
      "fatig": 7879,
      "eggs": 7880,
      "Whether": 7881,
      "devoted": 7882,
      "castle": 7883,
      "contempl": 7884,
      "exhausted": 7885,
      "Nikol": 7886,
      "lap": 7887,
      "disgu": 7888,
      "Reason": 7889,
      "Mich": 7890,
      "mou": 7891,
      "nu": 7892,
      "subl": 7893,
      "tel": 7894,
      "sport": 7895,
      "tyran": 7896,
      "medic": 7897,
      "supposing": 7898,
      "identical": 7899,
      "slightly": 7900,
      "Alexandrovitch": 7901,
      "Bur": 7902,
      "cub": 7903,
      "honey": 7904,
      "interior": 7905,
      "Justinian": 7906,
      "abstract": 7907,
      "luxury": 7908,
      "79": 7909,
      "ECT": 7910,
      "ache": 7911,
      "perors": 7912,
      "sentiments": 7913,
      "balance": 7914,
      "arrangement": 7915,
      "stomach": 7916,
      "compare": 7917,
      "purposes": 7918,
      "objective": 7919,
      "existed": 7920,
      "Cather": 7921,
      "bye": 7922,
      "poets": 7923,
      "males": 7924,
      "communication": 7925,
      "effic": 7926,
      "gets": 7927,
      "windows": 7928,
      "fairly": 7929,
      "pronounced": 7930,
      "Civ": 7931,
      "OL": 7932,
      "nour": 7933,
      "kindly": 7934,
      "probability": 7935,
      "claims": 7936,
      "injury": 7937,
      "links": 7938,
      "Catherine": 7939,
      "Hell": 7940,
      "cries": 7941,
      "centuries": 7942,
      "spiral": 7943,
      "organic": 7944,
      "developed": 7945,
      "conviction": 7946,
      "cavalry": 7947,
      "mic": 7948,
      "springs": 7949,
      "attacked": 7950,
      "pursue": 7951,
      "climate": 7952,
      "pest": 7953,
      "pear": 7954,
      "raising": 7955,
      "valley": 7956,
      "elevation": 7957,
      "judges": 7958,
      "Nikolay": 7959,
      "72": 7960,
      "Han": 7961,
      "etern": 7962,
      "fought": 7963,
      "recover": 7964,
      "research": 7965,
      "Three": 7966,
      "Mid": 7967,
      "cart": 7968,
      "chast": 7969,
      "attitude": 7970,
      "enterpr": 7971,
      "solicit": 7972,
      "Moreover": 7973,
      "Theodo": 7974,
      "Arkady": 7975,
      "DAM": 7976,
      "cave": 7977,
      "laud": 7978,
      "promin": 7979,
      "aphys": 7980,
      "OOK": 7981,
      "magistrate": 7982,
      "Cho": 7983,
      "offers": 7984,
      "Atl": 7985,
      "busy": 7986,
      "leader": 7987,
      "purchase": 7988,
      "Tru": 7989,
      "Wain": 7990,
      "haven": 7991,
      "shew": 7992,
      "cloth": 7993,
      "requis": 7994,
      "signal": 7995,
      "iency": 7996,
      "los": 7997,
      "elev": 7998,
      "entering": 7999,
      "Pope": 8000,
      "attempted": 8001,
      "embrace": 8002,
      "whispered": 8003,
      "improvement": 8004,
      "py": 8005,
      "rings": 8006,
      "repose": 8007,
      "foe": 8008,
      "spel": 8009,
      "commit": 8010,
      "liberal": 8011,
      "faculties": 8012,
      "Trans": 8013,
      "accurate": 8014,
      "intervals": 8015,
      "James": 8016,
      "rece": 8017,
      "hered": 8018,
      "Pliny": 8019,
      "slavery": 8020,
      "reported": 8021,
      "peasant": 8022,
      "53": 8023,
      "Aust": 8024,
      "shepher": 8025,
      "compens": 8026,
      "experiences": 8027,
      "throat": 8028,
      "fan": 8029,
      "extr": 8030,
      "perish": 8031,
      "coal": 8032,
      "submit": 8033,
      "rons": 8034,
      "pretend": 8035,
      "Anton": 8036,
      "Persian": 8037,
      "owe": 8038,
      "conform": 8039,
      "authors": 8040,
      "struggl": 8041,
      "aneously": 8042,
      "favourable": 8043,
      "prosperity": 8044,
      "ride": 8045,
      "Whatever": 8046,
      "runs": 8047,
      "Maj": 8048,
      "Court": 8049,
      "ñor": 8050,
      "staff": 8051,
      "olly": 8052,
      "copper": 8053,
      "expedition": 8054,
      "varieties": 8055,
      "saith": 8056,
      "iah": 8057,
      "southern": 8058,
      "contented": 8059,
      "prudent": 8060,
      "juris": 8061,
      "vap": 8062,
      "beloved": 8063,
      "rier": 8064,
      "cius": 8065,
      "lawful": 8066,
      "laying": 8067,
      "dwelling": 8068,
      "hunger": 8069,
      "pilgr": 8070,
      "heir": 8071,
      "seriously": 8072,
      "community": 8073,
      "commands": 8074,
      "reaching": 8075,
      "nife": 8076,
      "abandon": 8077,
      "voyage": 8078,
      "oubted": 8079,
      "batt": 8080,
      "appar": 8081,
      "whel": 8082,
      "conflict": 8083,
      "preceding": 8084,
      "mathematic": 8085,
      "econ": 8086,
      "scept": 8087,
      "immortal": 8088,
      "root": 8089,
      "proposition": 8090,
      "avar": 8091,
      "Art": 8092,
      "exercised": 8093,
      "heap": 8094,
      "deeper": 8095,
      "phan": 8096,
      "180": 8097,
      "REE": 8098,
      "gay": 8099,
      "uction": 8100,
      "spear": 8101,
      "offence": 8102,
      "commerce": 8103,
      "61": 8104,
      "referred": 8105,
      "web": 8106,
      "convent": 8107,
      "millions": 8108,
      "Homer": 8109,
      "alliance": 8110,
      "entity": 8111,
      "præ": 8112,
      "spicuous": 8113,
      "WH": 8114,
      "leness": 8115,
      "isation": 8116,
      "leaf": 8117,
      "scr": 8118,
      "appearing": 8119,
      "numerable": 8120,
      "persec": 8121,
      "forever": 8122,
      "longed": 8123,
      "victorious": 8124,
      "sixteen": 8125,
      "prevented": 8126,
      "instruments": 8127,
      "gence": 8128,
      "subdu": 8129,
      "continuous": 8130,
      "minister": 8131,
      "prisoner": 8132,
      "discussion": 8133,
      "54": 8134,
      "ctors": 8135,
      "uge": 8136,
      "nearest": 8137,
      "appreci": 8138,
      "older": 8139,
      "tradition": 8140,
      "library": 8141,
      "Port": 8142,
      "tent": 8143,
      "chin": 8144,
      "bee": 8145,
      "acknowledge": 8146,
      "cia": 8147,
      "gray": 8148,
      "spected": 8149,
      "deserved": 8150,
      "obtaining": 8151,
      "analog": 8152,
      "Ham": 8153,
      "Mess": 8154,
      "Neither": 8155,
      "commen": 8156,
      "idel": 8157,
      "grasp": 8158,
      "flowing": 8159,
      "velocity": 8160,
      "Soveraign": 8161,
      "Mur": 8162,
      "invisible": 8163,
      "envy": 8164,
      "article": 8165,
      "hov": 8166,
      "offensive": 8167,
      "marks": 8168,
      "deprived": 8169,
      "ais": 8170,
      "scen": 8171,
      "Anne": 8172,
      "thousands": 8173,
      "belonged": 8174,
      "admiration": 8175,
      "fundamental": 8176,
      "whir": 8177,
      "defeat": 8178,
      "merch": 8179,
      "whisper": 8180,
      "fetch": 8181,
      "Virg": 8182,
      "BOOK": 8183,
      "Dion": 8184,
      "Ke": 8185,
      "justified": 8186,
      "wheel": 8187,
      "missed": 8188,
      "consistent": 8189,
      "TRI": 8190,
      "forehead": 8191,
      "THIS": 8192,
      "gaze": 8193,
      "campaign": 8194,
      "inquiry": 8195,
      "kerchief": 8196,
      "vengeance": 8197,
      "63": 8198,
      "Wal": 8199,
      "ael": 8200,
      "artist": 8201,
      "Cicero": 8202,
      "din": 8203,
      "pom": 8204,
      "sli": 8205,
      "omed": 8206,
      "flag": 8207,
      "subordin": 8208,
      "Rosamond": 8209,
      "Bra": 8210,
      "Nast": 8211,
      "PR": 8212,
      "wels": 8213,
      "propos": 8214,
      "aks": 8215,
      "stayed": 8216,
      "departed": 8217,
      "Sunday": 8218,
      "criminal": 8219,
      "abuse": 8220,
      "190": 8221,
      "lovna": 8222,
      "Kuan": 8223,
      "apost": 8224,
      "inet": 8225,
      "smallest": 8226,
      "Pelo": 8227,
      "embraced": 8228,
      "George": 8229,
      "71": 8230,
      "Achill": 8231,
      "moist": 8232,
      "statement": 8233,
      "divis": 8234,
      "LITY": 8235,
      "breadth": 8236,
      "Fire": 8237,
      "Lin": 8238,
      "QU": 8239,
      "saint": 8240,
      "wixt": 8241,
      "keen": 8242,
      "grain": 8243,
      "marsh": 8244,
      "temples": 8245,
      "curtain": 8246,
      "reluct": 8247,
      "services": 8248,
      "REA": 8249,
      "involved": 8250,
      "mysterious": 8251,
      "Sul": 8252,
      "wrought": 8253,
      "Being": 8254,
      "sensibility": 8255,
      "Pu": 8256,
      "fount": 8257,
      "formid": 8258,
      "drank": 8259,
      "eleven": 8260,
      "swear": 8261,
      "commander": 8262,
      "rises": 8263,
      "critical": 8264,
      "enormous": 8265,
      "88": 8266,
      "MENT": 8267,
      "NE": 8268,
      "onel": 8269,
      "prodig": 8270,
      "historian": 8271,
      "len": 8272,
      "wages": 8273,
      "gos": 8274,
      "planted": 8275,
      "ived": 8276,
      "iana": 8277,
      "priests": 8278,
      "miracles": 8279,
      "strictly": 8280,
      "coward": 8281,
      "Bulstrode": 8282,
      "kn": 8283,
      "blows": 8284,
      "examination": 8285,
      "Exper": 8286,
      "claimed": 8287,
      "baby": 8288,
      "Augustus": 8289,
      "Princi": 8290,
      "remedy": 8291,
      "horizon": 8292,
      "Achilles": 8293,
      "magnitude": 8294,
      "lighted": 8295,
      "Turk": 8296,
      "Camp": 8297,
      "odes": 8298,
      "illum": 8299,
      "illness": 8300,
      "colonies": 8301,
      "simult": 8302,
      "189": 8303,
      "furious": 8304,
      "ito": 8305,
      "orbit": 8306,
      "whereby": 8307,
      "drops": 8308,
      "rarely": 8309,
      "inherit": 8310,
      "dared": 8311,
      "rud": 8312,
      "incess": 8313,
      "purity": 8314,
      "cruelty": 8315,
      "decisive": 8316,
      "ko": 8317,
      "wave": 8318,
      "rene": 8319,
      "icing": 8320,
      "abled": 8321,
      "didst": 8322,
      "Cons": 8323,
      "buck": 8324,
      "decay": 8325,
      "sleeping": 8326,
      "brilliant": 8327,
      "Scy": 8328,
      "innumerable": 8329,
      "conspicuous": 8330,
      "fellows": 8331,
      "mixture": 8332,
      "jealousy": 8333,
      "superstition": 8334,
      "leap": 8335,
      "chose": 8336,
      "issue": 8337,
      "89": 8338,
      "exal": 8339,
      "disappeared": 8340,
      "torn": 8341,
      "curve": 8342,
      "payments": 8343,
      "74": 8344,
      "Tu": 8345,
      "iant": 8346,
      "knife": 8347,
      "rass": 8348,
      "churches": 8349,
      "liability": 8350,
      "degrad": 8351,
      "intensity": 8352,
      "Soon": 8353,
      "mischief": 8354,
      "factory": 8355,
      "urious": 8356,
      "inscri": 8357,
      "recollect": 8358,
      "keeper": 8359,
      "keeps": 8360,
      "Goths": 8361,
      "polis": 8362,
      "Certainly": 8363,
      "ole": 8364,
      "selection": 8365,
      "troubled": 8366,
      "swallow": 8367,
      "swim": 8368,
      "rors": 8369,
      "reed": 8370,
      "confin": 8371,
      "awake": 8372,
      "producing": 8373,
      "diction": 8374,
      "slightest": 8375,
      "persuade": 8376,
      "76": 8377,
      "Lü": 8378,
      "nobl": 8379,
      "awak": 8380,
      "transparent": 8381,
      "metaphys": 8382,
      "enable": 8383,
      "iders": 8384,
      "suspected": 8385,
      "wax": 8386,
      "writings": 8387,
      "indicate": 8388,
      "specific": 8389,
      "vital": 8390,
      "zo": 8391,
      "goddess": 8392,
      "neighbourhood": 8393,
      "intermediate": 8394,
      "recall": 8395,
      "assembly": 8396,
      "modified": 8397,
      "rejected": 8398,
      "manufacture": 8399,
      "formidable": 8400,
      "85": 8401,
      "pite": 8402,
      "adap": 8403,
      "quit": 8404,
      "resemblance": 8405,
      "bone": 8406,
      "sway": 8407,
      "tables": 8408,
      "greet": 8409,
      "York": 8410,
      "lamp": 8411,
      "ands": 8412,
      "endless": 8413,
      "prescri": 8414,
      "vibr": 8415,
      "cratic": 8416,
      "bloody": 8417,
      "array": 8418,
      "symbol": 8419,
      "scope": 8420,
      "Pen": 8421,
      "dart": 8422,
      "alas": 8423,
      "heres": 8424,
      "unworthy": 8425,
      "accompany": 8426,
      "discharge": 8427,
      "promises": 8428,
      "confession": 8429,
      "JECT": 8430,
      "Out": 8431,
      "mam": 8432,
      "tied": 8433,
      "ini": 8434,
      "mood": 8435,
      "finity": 8436,
      "logic": 8437,
      "lawyer": 8438,
      "Ref": 8439,
      "bree": 8440,
      "zov": 8441,
      "rebell": 8442,
      "feather": 8443,
      "domain": 8444,
      "examined": 8445,
      "songs": 8446,
      "liquid": 8447,
      "equipment": 8448,
      "Hard": 8449,
      "nast": 8450,
      "onius": 8451,
      "leth": 8452,
      "mead": 8453,
      "detail": 8454,
      "ancestors": 8455,
      "autumn": 8456,
      "affections": 8457,
      "hoped": 8458,
      "charming": 8459,
      "gravity": 8460,
      "theatre": 8461,
      "Arkadyevitch": 8462,
      "ums": 8463,
      "scrup": 8464,
      "normal": 8465,
      "charity": 8466,
      "cheeks": 8467,
      "basis": 8468,
      "intimate": 8469,
      "52": 8470,
      "aus": 8471,
      "aves": 8472,
      "uro": 8473,
      "xii": 8474,
      "assure": 8475,
      "quad": 8476,
      "marve": 8477,
      "prize": 8478,
      "guards": 8479,
      "copied": 8480,
      "skil": 8481,
      "viewed": 8482,
      "gazed": 8483,
      "shoes": 8484,
      "World": 8485,
      "Pelopon": 8486,
      "Kut": 8487,
      "TA": 8488,
      "insol": 8489,
      "invari": 8490,
      "alo": 8491,
      "plans": 8492,
      "respecting": 8493,
      "acquire": 8494,
      "occasionally": 8495,
      "machine": 8496,
      "artificial": 8497,
      "appointment": 8498,
      "roubles": 8499,
      "altered": 8500,
      "urity": 8501,
      "prohib": 8502,
      "spark": 8503,
      "monster": 8504,
      "Socrates": 8505,
      "divide": 8506,
      "accounts": 8507,
      "advantageous": 8508,
      "constitute": 8509,
      "CI": 8510,
      "rout": 8511,
      "tension": 8512,
      "mole": 8513,
      "indirect": 8514,
      "anybody": 8515,
      "horri": 8516,
      "careless": 8517,
      "axis": 8518,
      "sciences": 8519,
      "arbitr": 8520,
      "compassion": 8521,
      "venerable": 8522,
      "contest": 8523,
      "demands": 8524,
      "abundance": 8525,
      "Friend": 8526,
      "awk": 8527,
      "recognized": 8528,
      "indignation": 8529,
      "pha": 8530,
      "asmuch": 8531,
      "uls": 8532,
      "oppose": 8533,
      "landlord": 8534,
      "valor": 8535,
      "childhood": 8536,
      "refuge": 8537,
      "piety": 8538,
      "masses": 8539,
      "Trojan": 8540,
      "lion": 8541,
      "anch": 8542,
      "solitude": 8543,
      "privile": 8544,
      "electricity": 8545,
      "ecclesiast": 8546,
      "paragraphs": 8547,
      "exagger": 8548,
      "resour": 8549,
      "ounds": 8550,
      "helped": 8551,
      "Venus": 8552,
      "Petrovna": 8553,
      "embarrass": 8554,
      "Hung": 8555,
      "Sim": 8556,
      "eke": 8557,
      "fortress": 8558,
      "profits": 8559,
      "tempted": 8560,
      "ceremon": 8561,
      "Queen": 8562,
      "PHIL": 8563,
      "Four": 8564,
      "ibly": 8565,
      "pushed": 8566,
      "hereafter": 8567,
      "atively": 8568,
      "Caes": 8569,
      "Michael": 8570,
      "OW": 8571,
      "injustice": 8572,
      "ona": 8573,
      "denied": 8574,
      "tribe": 8575,
      "observing": 8576,
      "altar": 8577,
      "exceedingly": 8578,
      "adopt": 8579,
      "bishops": 8580,
      "mystery": 8581,
      "restrain": 8582,
      "cheerful": 8583,
      "privilege": 8584,
      "Coun": 8585,
      "dawn": 8586,
      "jum": 8587,
      "yards": 8588,
      "willingly": 8589,
      "undoubted": 8590,
      "admire": 8591,
      "Gothic": 8592,
      "infantry": 8593,
      "ambass": 8594,
      "Sicily": 8595,
      "onder": 8596,
      "sets": 8597,
      "agues": 8598,
      "coach": 8599,
      "intend": 8600,
      "crack": 8601,
      "punished": 8602,
      "streams": 8603,
      "citizen": 8604,
      "rates": 8605,
      "antiquity": 8606,
      "respective": 8607,
      "treaty": 8608,
      "studied": 8609,
      "combined": 8610,
      "ridiculous": 8611,
      "77": 8612,
      "Adam": 8613,
      "Scot": 8614,
      "Self": 8615,
      "vivid": 8616,
      "ware": 8617,
      "adequ": 8618,
      "glanced": 8619,
      "paths": 8620,
      "functions": 8621,
      "schools": 8622,
      "Mont": 8623,
      "snat": 8624,
      "thren": 8625,
      "user": 8626,
      "agle": 8627,
      "akov": 8628,
      "atched": 8629,
      "combination": 8630,
      "proceeds": 8631,
      "sensibly": 8632,
      "contradiction": 8633,
      "dishon": 8634,
      "Tri": 8635,
      "gon": 8636,
      "úzov": 8637,
      "prose": 8638,
      "whereof": 8639,
      "transcri": 8640,
      "representations": 8641,
      "tends": 8642,
      "despise": 8643,
      "DEM": 8644,
      "restore": 8645,
      "Government": 8646,
      "Kutúzov": 8647,
      "saints": 8648,
      "yr": 8649,
      "llation": 8650,
      "confounded": 8651,
      "mos": 8652,
      "ubli": 8653,
      "emplo": 8654,
      "eighteen": 8655,
      "revealed": 8656,
      "bestowed": 8657,
      "Made": 8658,
      "Time": 8659,
      "lind": 8660,
      "pont": 8661,
      "enlight": 8662,
      "cel": 8663,
      "discour": 8664,
      "complying": 8665,
      "judged": 8666,
      "honorable": 8667,
      "institutions": 8668,
      "cort": 8669,
      "mile": 8670,
      "western": 8671,
      "Prov": 8672,
      "Prophe": 8673,
      "crimes": 8674,
      "hastened": 8675,
      "ART": 8676,
      "maids": 8677,
      "beaten": 8678,
      "Pag": 8679,
      "Turn": 8680,
      "polar": 8681,
      "solitary": 8682,
      "insist": 8683,
      "wondered": 8684,
      "Byz": 8685,
      "doubtless": 8686,
      "secretly": 8687,
      "infant": 8688,
      "create": 8689,
      "bowed": 8690,
      "consisted": 8691,
      "touching": 8692,
      "transcendental": 8693,
      "sore": 8694,
      "police": 8695,
      "upt": 8696,
      "assign": 8697,
      "owns": 8698,
      "chemical": 8699,
      "mists": 8700,
      "derivative": 8701,
      "dominion": 8702,
      "eloquence": 8703,
      "Ahab": 8704,
      "Lena": 8705,
      "Por": 8706,
      "Tart": 8707,
      "lung": 8708,
      "thereof": 8709,
      "Hector": 8710,
      "aux": 8711,
      "generals": 8712,
      "ILITY": 8713,
      "dangers": 8714,
      "ari": 8715,
      "ghost": 8716,
      "stories": 8717,
      "avag": 8718,
      "continual": 8719,
      "variations": 8720,
      "culture": 8721,
      "annoy": 8722,
      "Ap": 8723,
      "Jim": 8724,
      "iti": 8725,
      "notions": 8726,
      "emperors": 8727,
      "mont": 8728,
      "vanqu": 8729,
      "risk": 8730,
      "papers": 8731,
      "reserved": 8732,
      "olo": 8733,
      "ambit": 8734,
      "THER": 8735,
      "People": 8736,
      "longing": 8737,
      "justify": 8738,
      "intelligent": 8739,
      "CEN": 8740,
      "Tim": 8741,
      "sadd": 8742,
      "thri": 8743,
      "improved": 8744,
      "sooth": 8745,
      "mann": 8746,
      "merry": 8747,
      "productive": 8748,
      "lowest": 8749,
      "considerations": 8750,
      "cules": 8751,
      "conducted": 8752,
      "dial": 8753,
      "THAT": 8754,
      "Although": 8755,
      "mingled": 8756,
      "pig": 8757,
      "converted": 8758,
      "peril": 8759,
      "natives": 8760,
      "evna": 8761,
      "obligation": 8762,
      "wounds": 8763,
      "Has": 8764,
      "protest": 8765,
      "yourselves": 8766,
      "China": 8767,
      "planet": 8768,
      "quisite": 8769,
      "discern": 8770,
      "Cat": 8771,
      "Ru": 8772,
      "Vit": 8773,
      "lun": 8774,
      "pine": 8775,
      "ofim": 8776,
      "seize": 8777,
      "herent": 8778,
      "governed": 8779,
      "Trofim": 8780,
      "message": 8781,
      "Brother": 8782,
      "positively": 8783,
      "Trofimovitch": 8784,
      "Sto": 8785,
      "inform": 8786,
      "appearances": 8787,
      "Bell": 8788,
      "flood": 8789,
      "ville": 8790,
      "mourn": 8791,
      "resentment": 8792,
      "cunning": 8793,
      "fisher": 8794,
      "enka": 8795,
      "isol": 8796,
      "asia": 8797,
      "itating": 8798,
      "chus": 8799,
      "widow": 8800,
      "rolled": 8801,
      "haught": 8802,
      "managed": 8803,
      "hearted": 8804,
      "vara": 8805,
      "Does": 8806,
      "Stepanovitch": 8807,
      "dir": 8808,
      "cock": 8809,
      "Heath": 8810,
      "crim": 8811,
      "conqueror": 8812,
      "impatient": 8813,
      "73": 8814,
      "Cand": 8815,
      "ients": 8816,
      "zes": 8817,
      "recovered": 8818,
      "unlike": 8819,
      "comment": 8820,
      "sunk": 8821,
      "LIMI": 8822,
      "teaching": 8823,
      "potent": 8824,
      "psychic": 8825,
      "House": 8826,
      "Kʻ": 8827,
      "Rich": 8828,
      "Sur": 8829,
      "Saint": 8830,
      "enum": 8831,
      "encies": 8832,
      "toil": 8833,
      "nephe": 8834,
      "oppressed": 8835,
      "extingu": 8836,
      "ushes": 8837,
      "explic": 8838,
      "practically": 8839,
      "arrows": 8840,
      "Mu": 8841,
      "uated": 8842,
      "asing": 8843,
      "seeds": 8844,
      "otes": 8845,
      "periods": 8846,
      "Refr": 8847,
      "Negro": 8848,
      "Ag": 8849,
      "Mother": 8850,
      "assigned": 8851,
      "boats": 8852,
      "substant": 8853,
      "lights": 8854,
      "royalties": 8855,
      "hinder": 8856,
      "entertained": 8857,
      "dependent": 8858,
      "costs": 8859,
      "bla": 8860,
      "tar": 8861,
      "meal": 8862,
      "anti": 8863,
      "separation": 8864,
      "organism": 8865,
      "intelligible": 8866,
      "LIMITED": 8867,
      "Bish": 8868,
      "Oc": 8869,
      "Sig": 8870,
      "shif": 8871,
      "redistribut": 8872,
      "cloak": 8873,
      "brethren": 8874,
      "expectation": 8875,
      "offices": 8876,
      "bounds": 8877,
      "bottle": 8878,
      "peasants": 8879,
      "itim": 8880,
      "caut": 8881,
      "scand": 8882,
      "Union": 8883,
      "admirable": 8884,
      "Varvara": 8885,
      "amoinen": 8886,
      "requisite": 8887,
      "receipt": 8888,
      "exalted": 8889,
      "foul": 8890,
      "usur": 8891,
      "stable": 8892,
      "spher": 8893,
      "pointing": 8894,
      "equival": 8895,
      "fourteen": 8896,
      "proceeding": 8897,
      "neglected": 8898,
      "apprehension": 8899,
      "prophet": 8900,
      "replacement": 8901,
      "Lacedaemonians": 8902,
      "dil": 8903,
      "geon": 8904,
      "somehow": 8905,
      "courts": 8906,
      "suffice": 8907,
      "accused": 8908,
      "attempts": 8909,
      "AGREE": 8910,
      "BERG": 8911,
      "poured": 8912,
      "thod": 8913,
      "exquisite": 8914,
      "coin": 8915,
      "precept": 8916,
      "hunting": 8917,
      "assembled": 8918,
      "Louis": 8919,
      "astron": 8920,
      "ki": 8921,
      "mun": 8922,
      "pick": 8923,
      "vity": 8924,
      "imus": 8925,
      "upwards": 8926,
      "cible": 8927,
      "descent": 8928,
      "forthwith": 8929,
      "ENBERG": 8930,
      "processes": 8931,
      "99": 8932,
      "inging": 8933,
      "antine": 8934,
      "viz": 8935,
      "Indians": 8936,
      "criticism": 8937,
      "invention": 8938,
      "shells": 8939,
      "assurance": 8940,
      "sofa": 8941,
      "desperate": 8942,
      "DAMAG": 8943,
      "Cass": 8944,
      "GUT": 8945,
      "fab": 8946,
      "vna": 8947,
      "online": 8948,
      "unction": 8949,
      "accus": 8950,
      "increases": 8951,
      "demanded": 8952,
      "alteration": 8953,
      "knights": 8954,
      "corruption": 8955,
      "population": 8956,
      "PROJECT": 8957,
      "GUTENBERG": 8958,
      "Fin": 8959,
      "renow": 8960,
      "unequal": 8961,
      "appla": 8962,
      "subscri": 8963,
      "tumult": 8964,
      "Hsüeh": 8965,
      "Raymon": 8966,
      "losing": 8967,
      "ama": 8968,
      "lightning": 8969,
      "puts": 8970,
      "believing": 8971,
      "quered": 8972,
      "victim": 8973,
      "Henry": 8974,
      "complicated": 8975,
      "pelled": 8976,
      "ptions": 8977,
      "breakfast": 8978,
      "drow": 8979,
      "races": 8980,
      "scorn": 8981,
      "orum": 8982,
      "unpleasant": 8983,
      "profitable": 8984,
      "strengthen": 8985,
      "establishment": 8986,
      "recognize": 8987,
      "independence": 8988,
      "asserted": 8989,
      "Agl": 8990,
      "Hall": 8991,
      "Ze": 8992,
      "crew": 8993,
      "rhy": 8994,
      "attraction": 8995,
      "entit": 8996,
      "moves": 8997,
      "ulc": 8998,
      "caution": 8999,
      "disper": 9000,
      "cares": 9001,
      "Cæsar": 9002,
      "messenger": 9003,
      "iameter": 9004,
      "extravag": 9005,
      "Wu": 9006,
      "bac": 9007,
      "bub": 9008,
      "edges": 9009,
      "unite": 9010,
      "manage": 9011,
      "aker": 9012,
      "shake": 9013,
      "easier": 9014,
      "eastern": 9015,
      "portra": 9016,
      "announced": 9017,
      "occupy": 9018,
      "Alexandra": 9019,
      "nya": 9020,
      "suspended": 9021,
      "dimensions": 9022,
      "200": 9023,
      "uit": 9024,
      "vering": 9025,
      "leges": 9026,
      "astonishment": 9027,
      "Author": 9028,
      "wake": 9029,
      "assail": 9030,
      "whither": 9031,
      "glit": 9032,
      "combust": 9033,
      "gloomy": 9034,
      "wandering": 9035,
      "groups": 9036,
      "81": 9037,
      "healthy": 9038,
      "residence": 9039,
      "strained": 9040,
      "charges": 9041,
      "angel": 9042,
      "honors": 9043,
      "solely": 9044,
      "furnish": 9045,
      "eagerly": 9046,
      "idelity": 9047,
      "Dmit": 9048,
      "aging": 9049,
      "umber": 9050,
      "evils": 9051,
      "commence": 9052,
      "crossing": 9053,
      "cretion": 9054,
      "subdued": 9055,
      "adapted": 9056,
      "coarse": 9057,
      "handkerchief": 9058,
      "mechanical": 9059,
      "ascribed": 9060,
      "Aglaya": 9061,
      "pse": 9062,
      "peo": 9063,
      "continues": 9064,
      "Ox": 9065,
      "wasn": 9066,
      "dete": 9067,
      "brand": 9068,
      "steep": 9069,
      "translation": 9070,
      "translated": 9071,
      "UND": 9072,
      "Dav": 9073,
      "tower": 9074,
      "sert": 9075,
      "respectable": 9076,
      "represents": 9077,
      "accidental": 9078,
      "Dmitri": 9079,
      "95": 9080,
      "Clar": 9081,
      "Gar": 9082,
      "Mat": 9083,
      "ibility": 9084,
      "pir": 9085,
      "pace": 9086,
      "inton": 9087,
      "equality": 9088,
      "legitim": 9089,
      "paused": 9090,
      "conclusions": 9091,
      "miracle": 9092,
      "Syrac": 9093,
      "sulph": 9094,
      "ITH": 9095,
      "inch": 9096,
      "infl": 9097,
      "woke": 9098,
      "shared": 9099,
      "situated": 9100,
      "globe": 9101,
      "obviously": 9102,
      "brow": 9103,
      "celest": 9104,
      "cting": 9105,
      "quoted": 9106,
      "sailed": 9107,
      "theirs": 9108,
      "caus": 9109,
      "ianus": 9110,
      "advancing": 9111,
      "refresh": 9112,
      "bount": 9113,
      "kins": 9114,
      "rily": 9115,
      "prec": 9116,
      "finish": 9117,
      "continent": 9118,
      "destiny": 9119,
      "pause": 9120,
      "madness": 9121,
      "calculated": 9122,
      "available": 9123,
      "Kh": 9124,
      "Tra": 9125,
      "echo": 9126,
      "enqu": 9127,
      "unusual": 9128,
      "deceive": 9129,
      "provision": 9130,
      "elle": 9131,
      "types": 9132,
      "distances": 9133,
      "destined": 9134,
      "walks": 9135,
      "attribute": 9136,
      "British": 9137,
      "reaction": 9138,
      "shill": 9139,
      "betwixt": 9140,
      "negative": 9141,
      "lovitch": 9142,
      "physician": 9143,
      "prejudice": 9144,
      "ecclesiastical": 9145,
      "Ko": 9146,
      "Sure": 9147,
      "fant": 9148,
      "iber": 9149,
      "lib": 9150,
      "articles": 9151,
      "Than": 9152,
      "faire": 9153,
      "udd": 9154,
      "cheek": 9155,
      "humour": 9156,
      "modification": 9157,
      "esteemed": 9158,
      "Wainamoinen": 9159,
      "Gold": 9160,
      "cree": 9161,
      "ego": 9162,
      "abilities": 9163,
      "mans": 9164,
      "honourable": 9165,
      "delightful": 9166,
      "Antio": 9167,
      "propriety": 9168,
      "Heathcliff": 9169,
      "Last": 9170,
      "alarmed": 9171,
      "veil": 9172,
      "plung": 9173,
      "formal": 9174,
      "offended": 9175,
      "surrounding": 9176,
      "picked": 9177,
      "seventy": 9178,
      "Little": 9179,
      "brows": 9180,
      "tight": 9181,
      "ander": 9182,
      "forded": 9183,
      "sugar": 9184,
      "engage": 9185,
      "uously": 9186,
      "celestial": 9187,
      "iate": 9188,
      "ube": 9189,
      "orn": 9190,
      "select": 9191,
      "frank": 9192,
      "pregn": 9193,
      "objection": 9194,
      "expressions": 9195,
      "variation": 9196,
      "virgin": 9197,
      "disdain": 9198,
      "ensu": 9199,
      "area": 9200,
      "preferred": 9201,
      "talents": 9202,
      "ruined": 9203,
      "mail": 9204,
      "Except": 9205,
      "grove": 9206,
      "muttered": 9207,
      "funeral": 9208,
      "shadows": 9209,
      "historical": 9210,
      "reconci": 9211,
      "Alice": 9212,
      "Dam": 9213,
      "daring": 9214,
      "insects": 9215,
      "oped": 9216,
      "Chy": 9217,
      "scream": 9218,
      "ledge": 9219,
      "countess": 9220,
      "warrant": 9221,
      "incred": 9222,
      "successively": 9223,
      "pipe": 9224,
      "illustrious": 9225,
      "Faith": 9226,
      "symptoms": 9227,
      "abol": 9228,
      "exhibit": 9229,
      "doubts": 9230,
      "pretended": 9231,
      "Corinth": 9232,
      "offspring": 9233,
      "possesses": 9234,
      "treach": 9235,
      "systems": 9236,
      "Yün": 9237,
      "designs": 9238,
      "introduce": 9239,
      "Pavlovitch": 9240,
      "inheritance": 9241,
      "86": 9242,
      "bred": 9243,
      "exile": 9244,
      "fraud": 9245,
      "track": 9246,
      "marble": 9247,
      "Ange": 9248,
      "earthly": 9249,
      "cutting": 9250,
      "True": 9251,
      "totally": 9252,
      "dex": 9253,
      "afforded": 9254,
      "vio": 9255,
      "cris": 9256,
      "vote": 9257,
      "princip": 9258,
      "accessible": 9259,
      "customs": 9260,
      "sang": 9261,
      "ston": 9262,
      "beating": 9263,
      "overwhel": 9264,
      "steel": 9265,
      "steady": 9266,
      "shock": 9267,
      "ascend": 9268,
      "average": 9269,
      "significance": 9270,
      "Salt": 9271,
      "Ur": 9272,
      "lym": 9273,
      "oppon": 9274,
      "faults": 9275,
      "supposes": 9276,
      "legions": 9277,
      "sixth": 9278,
      "addressing": 9279,
      "currents": 9280,
      "literature": 9281,
      "subsistence": 9282,
      "84": 9283,
      "CO": 9284,
      "Lad": 9285,
      "hort": 9286,
      "agitated": 9287,
      "fring": 9288,
      "string": 9289,
      "relates": 9290,
      "furniture": 9291,
      "maintaining": 9292,
      "controvers": 9293,
      "contempor": 9294,
      "extremity": 9295,
      "divisions": 9296,
      "83": 9297,
      "Could": 9298,
      "categ": 9299,
      "jaw": 9300,
      "omit": 9301,
      "decor": 9302,
      "abide": 9303,
      "Chal": 9304,
      "exped": 9305,
      "ancients": 9306,
      "Shat": 9307,
      "convenience": 9308,
      "87": 9309,
      "Rep": 9310,
      "lan": 9311,
      "spont": 9312,
      "resting": 9313,
      "draws": 9314,
      "sustain": 9315,
      "HY": 9316,
      "ensible": 9317,
      "agent": 9318,
      "symme": 9319,
      "blessing": 9320,
      "94": 9321,
      "conquered": 9322,
      "shone": 9323,
      "discord": 9324,
      "seeming": 9325,
      "plays": 9326,
      "steam": 9327,
      "groan": 9328,
      "Turks": 9329,
      "indifference": 9330,
      "excessive": 9331,
      "Flo": 9332,
      "lid": 9333,
      "vitch": 9334,
      "inated": 9335,
      "trum": 9336,
      "proves": 9337,
      "ills": 9338,
      "valiant": 9339,
      "expecting": 9340,
      "wolf": 9341,
      "aur": 9342,
      "ape": 9343,
      "reci": 9344,
      "alleg": 9345,
      "propag": 9346,
      "covers": 9347,
      "sweep": 9348,
      "Germans": 9349,
      "washed": 9350,
      "shelter": 9351,
      "Sud": 9352,
      "incur": 9353,
      "Chu": 9354,
      "Arabs": 9355,
      "innocence": 9356,
      "vegetable": 9357,
      "jumped": 9358,
      "unuch": 9359,
      "rail": 9360,
      "ponder": 9361,
      "starting": 9362,
      "occurs": 9363,
      "appetite": 9364,
      "Shi": 9365,
      "bat": 9366,
      "dome": 9367,
      "adise": 9368,
      "whereupon": 9369,
      "augment": 9370,
      "rests": 9371,
      "tomb": 9372,
      "ifications": 9373,
      "Robert": 9374,
      "Phil": 9375,
      "────": 9376,
      "Compare": 9377,
      "asped": 9378,
      "arius": 9379,
      "abst": 9380,
      "iger": 9381,
      "risen": 9382,
      "yielded": 9383,
      "powder": 9384,
      "merchants": 9385,
      "96": 9386,
      "Bas": 9387,
      "onge": 9388,
      "beli": 9389,
      "ghter": 9390,
      "permit": 9391,
      "ensed": 9392,
      "commission": 9393,
      "ulture": 9394,
      "strongest": 9395,
      "regarding": 9396,
      "wedding": 9397,
      "forests": 9398,
      "historians": 9399,
      "construction": 9400,
      "usalem": 9401,
      "Jerusalem": 9402,
      "Ves": 9403,
      "data": 9404,
      "gun": 9405,
      "orus": 9406,
      "mansion": 9407,
      "doll": 9408,
      "privi": 9409,
      "LET": 9410,
      "educated": 9411,
      "lucky": 9412,
      "modesty": 9413,
      "sacrifices": 9414,
      "Easter": 9415,
      "Mac": 9416,
      "SU": 9417,
      "nobles": 9418,
      "idol": 9419,
      "unted": 9420,
      "defe": 9421,
      "adds": 9422,
      "confessed": 9423,
      "Everything": 9424,
      "hungry": 9425,
      "detach": 9426,
      "Spanish": 9427,
      "Só": 9428,
      "revel": 9429,
      "chains": 9430,
      "Thom": 9431,
      "marched": 9432,
      "joys": 9433,
      "tribun": 9434,
      "aristo": 9435,
      "crete": 9436,
      "rites": 9437,
      "discuss": 9438,
      "leaning": 9439,
      "metals": 9440,
      "bis": 9441,
      "fitted": 9442,
      "actor": 9443,
      "letting": 9444,
      "meanwhile": 9445,
      "straw": 9446,
      "India": 9447,
      "travel": 9448,
      "preparing": 9449,
      "Nevertheless": 9450,
      "Jose": 9451,
      "bits": 9452,
      "hated": 9453,
      "tie": 9454,
      "theo": 9455,
      "today": 9456,
      "wick": 9457,
      "quam": 9458,
      "ilus": 9459,
      "Sónya": 9460,
      "cad": 9461,
      "tus": 9462,
      "voc": 9463,
      "toss": 9464,
      "secr": 9465,
      "bees": 9466,
      "alled": 9467,
      "couch": 9468,
      "beforehand": 9469,
      "helpless": 9470,
      "studies": 9471,
      "Chao": 9472,
      "Alexandrovna": 9473,
      "Theodosius": 9474,
      "Say": 9475,
      "iph": 9476,
      "mig": 9477,
      "子曰": 9478,
      "anon": 9479,
      "robe": 9480,
      "asses": 9481,
      "regiment": 9482,
      "concerns": 9483,
      "attacks": 9484,
      "habited": 9485,
      "borrowed": 9486,
      "receives": 9487,
      "mov": 9488,
      "genus": 9489,
      "specially": 9490,
      "thirteen": 9491,
      "eaten": 9492,
      "magnificent": 9493,
      "pomp": 9494,
      "Kater": 9495,
      "Ve": 9496,
      "hit": 9497,
      "jar": 9498,
      "haz": 9499,
      "Thought": 9500,
      "visitor": 9501,
      "miser": 9502,
      "ilibri": 9503,
      "suggestion": 9504,
      "interpreted": 9505,
      "mould": 9506,
      "hemis": 9507,
      "section": 9508,
      "champ": 9509,
      "herd": 9510,
      "plu": 9511,
      "pendicular": 9512,
      "Cast": 9513,
      "Fare": 9514,
      "Kir": 9515,
      "khov": 9516,
      "ος": 9517,
      "resolute": 9518,
      "argu": 9519,
      "wearing": 9520,
      "oppress": 9521,
      "varied": 9522,
      "120": 9523,
      "planets": 9524,
      "anguish": 9525,
      "covering": 9526,
      "safely": 9527,
      "instruction": 9528,
      "equivalent": 9529,
      "Hip": 9530,
      "cam": 9531,
      "wre": 9532,
      "rejoined": 9533,
      "alli": 9534,
      "omon": 9535,
      "integr": 9536,
      "Chron": 9537,
      "student": 9538,
      "Amm": 9539,
      "injured": 9540,
      "wander": 9541,
      "comprehend": 9542,
      "constructed": 9543,
      "Sudden": 9544,
      "82": 9545,
      "EL": 9546,
      "nig": 9547,
      "oo": 9548,
      "ón": 9549,
      "recalled": 9550,
      "forgiven": 9551,
      "inea": 9552,
      "Pooh": 9553,
      "salut": 9554,
      "griev": 9555,
      "instincts": 9556,
      "infinitely": 9557,
      "deemed": 9558,
      "nephew": 9559,
      "Katerina": 9560,
      "Nic": 9561,
      "dar": 9562,
      "ouch": 9563,
      "ala": 9564,
      "fox": 9565,
      "destit": 9566,
      "completed": 9567,
      "sprang": 9568,
      "muscular": 9569,
      "Trim": 9570,
      "impressed": 9571,
      "flee": 9572,
      "vigor": 9573,
      "sources": 9574,
      "Object": 9575,
      "linen": 9576,
      "followers": 9577,
      "trick": 9578,
      "Anim": 9579,
      "wishing": 9580,
      "chester": 9581,
      "sickness": 9582,
      "involunt": 9583,
      "clerk": 9584,
      "undoubtedly": 9585,
      "Sou": 9586,
      "emotions": 9587,
      "pical": 9588,
      "ray": 9589,
      "xiv": 9590,
      "neuro": 9591,
      "Whence": 9592,
      "flows": 9593,
      "equilibri": 9594,
      "ventured": 9595,
      "chiefs": 9596,
      "reports": 9597,
      "warrior": 9598,
      "absorbed": 9599,
      "Apost": 9600,
      "Es": 9601,
      "Fair": 9602,
      "Lake": 9603,
      "Use": 9604,
      "cant": 9605,
      "selfish": 9606,
      "carries": 9607,
      "equator": 9608,
      "horn": 9609,
      "riding": 9610,
      "tenderness": 9611,
      "attributed": 9612,
      "entitled": 9613,
      "Shatov": 9614,
      "bend": 9615,
      "enabled": 9616,
      "idge": 9617,
      "icated": 9618,
      "apple": 9619,
      "answers": 9620,
      "lightly": 9621,
      "versed": 9622,
      "carbon": 9623,
      "angels": 9624,
      "neighbours": 9625,
      "favorite": 9626,
      "depths": 9627,
      "TRA": 9628,
      "Ret": 9629,
      "Yang": 9630,
      "inhabited": 9631,
      "novel": 9632,
      "entious": 9633,
      "ulsion": 9634,
      "Pray": 9635,
      "leaders": 9636,
      "ugal": 9637,
      "sufferings": 9638,
      "issued": 9639,
      "ogeneous": 9640,
      "Mons": 9641,
      "dated": 9642,
      "sque": 9643,
      "ísov": 9644,
      "syll": 9645,
      "Liber": 9646,
      "murmur": 9647,
      "Athenian": 9648,
      "ceremony": 9649,
      "betrayed": 9650,
      "Apollo": 9651,
      "Tem": 9652,
      "iner": 9653,
      "depos": 9654,
      "load": 9655,
      "coinc": 9656,
      "diseas": 9657,
      "partition": 9658,
      "extension": 9659,
      "skies": 9660,
      "wheat": 9661,
      "gazing": 9662,
      "despised": 9663,
      "diligence": 9664,
      "Denísov": 9665,
      "Nastasia": 9666,
      "Woman": 9667,
      "upright": 9668,
      "dozen": 9669,
      "oping": 9670,
      "regis": 9671,
      "drun": 9672,
      "defended": 9673,
      "Poor": 9674,
      "obeyed": 9675,
      "Danube": 9676,
      "subsequent": 9677,
      "arbitrary": 9678,
[...]
